#ifndef MODEL_H
#define MODEL_H
const unsigned char model_data[] = {0x1c,0x0,0x0,0x0,0x54,0x46,0x4c,0x33,0x14,0x0,0x20,0x0,0x1c,0x0,0x18,0x0,0x14,0x0,0x10,0x0,0xc,0x0,0x0,0x0,0x8,0x0,0x4,0x0,0x14,0x0,0x0,0x0,0x1c,0x0,0x0,0x0,0x8c,0x0,0x0,0x0,0xc,0x1,0x0,0x0,0x38,0xf,0x0,0x0,0x48,0xf,0x0,0x0,0x84,0x2f,0x0,0x0,0x3,0x0,0x0,0x0,0x1,0x0,0x0,0x0,0x4,0x0,0x0,0x0,0x8a,0xed,0xff,0xff,0xc,0x0,0x0,0x0,0x1c,0x0,0x0,0x0,0x3c,0x0,0x0,0x0,0xf,0x0,0x0,0x0,0x73,0x65,0x72,0x76,0x69,0x6e,0x67,0x5f,0x64,0x65,0x66,0x61,0x75,0x6c,0x74,0x0,0x1,0x0,0x0,0x0,0x4,0x0,0x0,0x0,0x68,0xff,0xff,0xff,0x24,0x0,0x0,0x0,0x4,0x0,0x0,0x0,0x8,0x0,0x0,0x0,0x6f,0x75,0x74,0x70,0x75,0x74,0x5f,0x30,0x0,0x0,0x0,0x0,0x1,0x0,0x0,0x0,0x4,0x0,0x0,0x0,0x4e,0xf1,0xff,0xff,0x4,0x0,0x0,0x0,0xd,0x0,0x0,0x0,0x69,0x6e,0x70,0x75,0x74,0x5f,0x6c,0x61,0x79,0x65,0x72,0x5f,0x39,0x0,0x0,0x0,0x3,0x0,0x0,0x0,0x5c,0x0,0x0,0x0,0x2c,0x0,0x0,0x0,0x4,0x0,0x0,0x0,0xb8,0xff,0xff,0xff,0x28,0x0,0x0,0x0,0x4,0x0,0x0,0x0,0x13,0x0,0x0,0x0,0x43,0x4f,0x4e,0x56,0x45,0x52,0x53,0x49,0x4f,0x4e,0x5f,0x4d,0x45,0x54,0x41,0x44,0x41,0x54,0x41,0x0,0xdc,0xff,0xff,0xff,0x27,0x0,0x0,0x0,0x4,0x0,0x0,0x0,0x13,0x0,0x0,0x0,0x6d,0x69,0x6e,0x5f,0x72,0x75,0x6e,0x74,0x69,0x6d,0x65,0x5f,0x76,0x65,0x72,0x73,0x69,0x6f,0x6e,0x0,0x8,0x0,0xc,0x0,0x8,0x0,0x4,0x0,0x8,0x0,0x0,0x0,0x26,0x0,0x0,0x0,0x4,0x0,0x0,0x0,0x13,0x0,0x0,0x0,0x6d,0x69,0x6e,0x5f,0x72,0x75,0x6e,0x74,0x69,0x6d,0x65,0x5f,0x76,0x65,0x72,0x73,0x69,0x6f,0x6e,0x0,0x29,0x0,0x0,0x0,0x28,0xe,0x0,0x0,0x20,0xe,0x0,0x0,0xc,0xe,0x0,0x0,0xe8,0xd,0x0,0x0,0xd4,0xd,0x0,0x0,0xb8,0xd,0x0,0x0,0x9c,0xd,0x0,0x0,0x80,0xd,0x0,0x0,0x6c,0xd,0x0,0x0,0x4c,0xd,0x0,0x0,0xfc,0xc,0x0,0x0,0xec,0xb,0x0,0x0,0x9c,0xb,0x0,0x0,0x8c,0x5,0x0,0x0,0xfc,0x4,0x0,0x0,0x8c,0x1,0x0,0x0,0x70,0x1,0x0,0x0,0x54,0x1,0x0,0x0,0x4c,0x1,0x0,0x0,0x44,0x1,0x0,0x0,0x3c,0x1,0x0,0x0,0x34,0x1,0x0,0x0,0x2c,0x1,0x0,0x0,0x24,0x1,0x0,0x0,0x1c,0x1,0x0,0x0,0x14,0x1,0x0,0x0,0xc,0x1,0x0,0x0,0x4,0x1,0x0,0x0,0xfc,0x0,0x0,0x0,0xf4,0x0,0x0,0x0,0xec,0x0,0x0,0x0,0xe4,0x0,0x0,0x0,0xdc,0x0,0x0,0x0,0xd4,0x0,0x0,0x0,0xcc,0x0,0x0,0x0,0xc4,0x0,0x0,0x0,0xbc,0x0,0x0,0x0,0xb4,0x0,0x0,0x0,0x94,0x0,0x0,0x0,0x74,0x0,0x0,0x0,0x4,0x0,0x0,0x0,0x96,0xf2,0xff,0xff,0x4,0x0,0x0,0x0,0x60,0x0,0x0,0x0,0xc,0x0,0x0,0x0,0x8,0x0,0xe,0x0,0x8,0x0,0x4,0x0,0x8,0x0,0x0,0x0,0x10,0x0,0x0,0x0,0x28,0x0,0x0,0x0,0x0,0x0,0x6,0x0,0x8,0x0,0x4,0x0,0x6,0x0,0x0,0x0,0x4,0x0,0x0,0x0,0x1,0x0,0x0,0x0,0xeb,0x3,0x0,0x0,0xc,0x0,0x18,0x0,0x14,0x0,0x10,0x0,0xc,0x0,0x4,0x0,0xc,0x0,0x0,0x0,0x12,0x3b,0x36,0x85,0x5,0xbb,0xa6,0xad,0x2,0x0,0x0,0x0,0x2,0x0,0x0,0x0,0x4,0x0,0x0,0x0,0x6,0x0,0x0,0x0,0x32,0x2e,0x31,0x38,0x2e,0x30,0x0,0x0,0x2,0xf3,0xff,0xff,0x4,0x0,0x0,0x0,0x10,0x0,0x0,0x0,0x0,0x0,0x0,0x0,0x0,0x0,0x0,0x0,0x0,0x0,0x0,0x0,0x0,0x0,0x0,0x0,0x1e,0xf3,0xff,0xff,0x4,0x0,0x0,0x0,0x10,0x0,0x0,0x0,0x31,0x2e,0x31,0x34,0x2e,0x30,0x0,0x0,0x0,0x0,0x0,0x0,0x0,0x0,0x0,0x0,0x4,0xd3,0xff,0xff,0x8,0xd3,0xff,0xff,0xc,0xd3,0xff,0xff,0x10,0xd3,0xff,0xff,0x14,0xd3,0xff,0xff,0x18,0xd3,0xff,0xff,0x1c,0xd3,0xff,0xff,0x20,0xd3,0xff,0xff,0x24,0xd3,0xff,0xff,0x28,0xd3,0xff,0xff,0x2c,0xd3,0xff,0xff,0x30,0xd3,0xff,0xff,0x34,0xd3,0xff,0xff,0x38,0xd3,0xff,0xff,0x3c,0xd3,0xff,0xff,0x40,0xd3,0xff,0xff,0x44,0xd3,0xff,0xff,0x48,0xd3,0xff,0xff,0x4c,0xd3,0xff,0xff,0x50,0xd3,0xff,0xff,0x8a,0xf3,0xff,0xff,0x4,0x0,0x0,0x0,0x9,0x0,0x0,0x0,0xbe,0xee,0xe7,0xbd,0xda,0xf1,0x2,0x7f,0xd,0x0,0x0,0x0,0xa2,0xf3,0xff,0xff,0x4,0x0,0x0,0x0,0x9,0x0,0x0,0x0,0x72,0x19,0x6c,0x7d,0x2e,0x72,0x73,0x80,0x75,0x0,0x0,0x0,0xba,0xf3,0xff,0xff,0x4,0x0,0x0,0x0,0x60,0x3,0x0,0x0,0xe3,0xc9,0xf,0xd,0xf9,0x1,0xe4,0xba,0xe7,0x7f,0xa7,0x2a,0x3b,0xe,0xdd,0xfe,0x2e,0x1d,0x6f,0x30,0x1e,0xe6,0x1d,0xc6,0x13,0x1c,0xf9,0x24,0x81,0x39,0xd1,0x22,0xe9,0xea,0xb,0xc9,0xd3,0x5c,0xf8,0xd1,0x53,0xdf,0x42,0x81,0x4,0xf9,0x28,0xf7,0x3e,0xfb,0x17,0xc2,0x9b,0x4b,0x3c,0x7f,0x9d,0xef,0xe8,0x20,0xf7,0xb7,0xf,0x2b,0xfd,0xf,0x2a,0xe6,0xda,0x30,0xd,0xd5,0x42,0x37,0x18,0x42,0x12,0xd,0xd0,0xdb,0xd8,0xcc,0x7,0xef,0xad,0x85,0xb4,0xf,0xc,0xe4,0x8d,0xe,0xb,0xf4,0x10,0x25,0x10,0xc,0xde,0x7f,0x82,0x11,0xf7,0x3b,0xdf,0xba,0x23,0x64,0xab,0x4c,0x58,0xda,0xc1,0x44,0xcd,0x1e,0xd3,0xf4,0x3f,0x2d,0x9,0x5,0x3d,0x31,0xde,0xc0,0x23,0xfa,0x7f,0x15,0x1c,0x10,0xcf,0xb,0xfc,0x7f,0x7,0xc7,0xe1,0x95,0x19,0xee,0xe2,0xef,0xfc,0xd0,0x8,0xaa,0xd1,0xa,0xfc,0xe,0x2f,0x4a,0xed,0xea,0xf2,0xd5,0xf0,0x21,0xe4,0xcf,0xbe,0x2f,0x2b,0xa,0x1c,0xed,0x20,0x67,0xdb,0x35,0xf8,0x2f,0x28,0x10,0x1b,0xee,0x7f,0xbd,0xf,0xc1,0xc3,0x16,0xb4,0xce,0x1f,0xd,0x41,0xf3,0x1,0x79,0x9,0xf7,0x42,0x44,0x6,0xe6,0xd1,0xa5,0xd2,0x2e,0xf6,0xb2,0xde,0x5,0xba,0x3e,0xe1,0xaf,0xf2,0x1b,0xe2,0x81,0xed,0x5a,0xc9,0x12,0x38,0xbe,0x21,0xf,0x5c,0xe5,0x1e,0xf3,0xf3,0xd3,0xe1,0x27,0xe4,0x22,0x63,0x42,0x81,0x47,0x1e,0x1c,0x55,0xf,0x70,0x9f,0xb0,0x3e,0xdd,0x8,0xba,0x1b,0xf0,0x65,0xc,0x10,0x2b,0xdb,0xf8,0xa2,0x3f,0xe3,0x34,0x4c,0x7,0x38,0xe9,0xfa,0xde,0x1a,0x7f,0xff,0xfa,0x9,0x2d,0xa9,0x48,0x11,0x0,0x92,0x49,0x4,0xb0,0xa3,0x69,0xc9,0xc9,0xc1,0xa6,0xdb,0x2,0x26,0x17,0x8e,0xec,0x1d,0x14,0x7,0x81,0xe6,0x40,0xef,0x37,0x5d,0xce,0xa,0xef,0x3d,0x3a,0xd3,0x27,0x2d,0xef,0xf3,0x0,0xc9,0xcc,0x25,0xec,0x6a,0x13,0xbb,0x81,0x9f,0xf6,0xb1,0x44,0x3d,0x47,0x66,0x45,0x81,0x43,0x54,0xe,0x31,0x1c,0xe2,0x42,0x66,0xe8,0x5e,0xf3,0xb8,0x1e,0xd5,0xed,0x11,0x0,0x47,0x28,0xd3,0x3d,0x10,0xef,0xfd,0xf9,0x30,0x34,0xe8,0x2f,0x31,0xb1,0xf0,0x3d,0xfc,0x52,0x1c,0xeb,0x81,0x1f,0xb3,0xc4,0xd,0xf9,0x42,0x53,0xa3,0x3,0xa2,0xc2,0xf2,0x87,0x38,0x1c,0xdb,0x48,0xfb,0xc3,0x4e,0x5a,0xbb,0x5,0xa2,0xd1,0x14,0x97,0x1f,0xc3,0x17,0xd1,0x8,0x27,0xc8,0x54,0x81,0x31,0xc,0x6c,0x7,0x1f,0x48,0xd2,0x25,0x3e,0x16,0xf2,0x1,0x25,0x7f,0xff,0xf,0x50,0x2c,0xcb,0xe7,0xdf,0x43,0x3a,0xec,0x60,0x46,0x7d,0x25,0x4e,0x3a,0xb0,0xc2,0xfd,0x11,0xea,0xfa,0x18,0xf3,0xe5,0xe1,0x81,0xf2,0xdf,0x2e,0xa6,0xde,0x8e,0xaf,0x4,0xa4,0xd1,0x1b,0xf5,0x4e,0x34,0x43,0xfe,0x26,0x52,0x14,0xf,0x56,0xd2,0xd7,0x25,0xf6,0xde,0x32,0x58,0xe9,0x5c,0xd7,0xce,0x31,0x55,0x25,0x2c,0x7f,0xf3,0x9,0x66,0x3c,0x1e,0x43,0x22,0x51,0xa5,0x78,0xe9,0x81,0xee,0xed,0xa2,0xf8,0xfe,0xe3,0xeb,0xe0,0xf3,0x93,0xb4,0x49,0xf2,0x39,0xcd,0x49,0x28,0x8e,0x59,0x3,0x68,0x31,0xdb,0xde,0x81,0xb6,0x90,0xd0,0x3e,0x2c,0x97,0xb7,0xd0,0x43,0x58,0xd1,0x8,0x34,0xe3,0xfc,0x14,0x1b,0x3d,0x22,0xc0,0xff,0x3f,0x1c,0x2a,0x2e,0xd1,0xfc,0x3b,0xdf,0xfd,0xec,0xbc,0x0,0x81,0x14,0xf1,0xe4,0xd0,0x3e,0x44,0xce,0xf,0xc8,0xfe,0xab,0xfe,0x60,0xd6,0xf4,0x36,0x79,0x81,0x7f,0xe,0xca,0x43,0x6a,0x1a,0xdf,0x23,0x18,0x2a,0x3e,0x2,0x60,0x3,0xc9,0xa3,0xe5,0xf6,0xd5,0x1a,0xa4,0x1f,0x50,0xbf,0x6,0x95,0xd8,0x66,0x3e,0xdd,0x6c,0x9b,0xf7,0x58,0xeb,0x7f,0xe6,0xd3,0xeb,0xb4,0xbd,0xe4,0x2a,0xd8,0xf3,0xf9,0x22,0x3e,0xc5,0x4,0xa3,0x87,0xf4,0xe2,0x8,0xe1,0xf5,0xd1,0x1d,0x42,0x2e,0x1f,0x64,0x88,0x33,0x66,0xc7,0x24,0x57,0x90,0xbc,0x7f,0xc0,0x22,0x0,0xd,0x4c,0x7d,0xa8,0xc6,0xd1,0xd4,0xef,0x16,0xf2,0x19,0xfc,0xd5,0x23,0x64,0xd4,0x31,0xf8,0xb,0x1c,0x47,0xbf,0x5,0x81,0xce,0x7,0x4,0x18,0xc3,0xf9,0x2,0x3e,0x3c,0xbc,0x72,0xbe,0x89,0xb6,0xc,0xf5,0x50,0x67,0x22,0x66,0xe4,0x5,0x4f,0xd9,0xee,0xe,0x48,0x2d,0x1,0x81,0x31,0x29,0x89,0xff,0x81,0x56,0xac,0xb1,0x3,0x1b,0xa,0x96,0xdb,0xa,0x15,0x9f,0x27,0xe6,0x22,0x1c,0xbc,0x1e,0x3c,0x2f,0x58,0x14,0x19,0x1a,0xac,0xc,0x39,0xdc,0x82,0xe7,0x2d,0xae,0xd,0xc8,0x45,0xe0,0x3,0x81,0x16,0xc4,0x5e,0x19,0xcf,0x5c,0xe5,0x76,0x37,0xcb,0x52,0x4a,0xd,0xe7,0x2b,0xff,0x47,0x55,0xee,0x56,0x47,0x4a,0x28,0x33,0x40,0xde,0x47,0x38,0xe0,0xbc,0xf6,0xd,0x2c,0xbb,0xc0,0x44,0x26,0x65,0xec,0x7f,0x3b,0x28,0x44,0x96,0x81,0x0,0x11,0xf,0x7,0xac,0xfc,0xa2,0xfb,0xaf,0x0,0xff,0xe6,0xed,0x2e,0x4e,0x10,0x1e,0x50,0x14,0x85,0x4d,0x15,0x6a,0x50,0x18,0x2a,0x24,0xf4,0xa,0x44,0x0,0x54,0x50,0x3e,0x1f,0x59,0x30,0xa6,0xd4,0xea,0xf5,0x17,0xa5,0x81,0x4,0xe9,0x88,0xc6,0x35,0xde,0xc2,0xe2,0xb2,0xd8,0xde,0xf9,0xd9,0x61,0x43,0x95,0x90,0x81,0x9f,0xbb,0xf7,0x4b,0xf2,0x20,0xf1,0xd7,0x95,0xf7,0x2b,0xd2,0xd8,0x39,0xd3,0xa,0x2a,0x26,0xf7,0xff,0xff,0x4,0x0,0x0,0x0,0x80,0x0,0x0,0x0,0x21,0x3,0x0,0x0,0xd4,0xfe,0xff,0xff,0x2c,0xfe,0xff,0xff,0x3,0xff,0xff,0xff,0xca,0xfa,0xff,0xff,0xe3,0xfc,0xff,0xff,0xe9,0x0,0x0,0x0,0xa9,0xff,0xff,0xff,0xaf,0xfe,0xff,0xff,0xf0,0x1,0x0,0x0,0x58,0x0,0x0,0x0,0xe8,0xfe,0xff,0xff,0xfb,0x0,0x0,0x0,0x49,0xfc,0xff,0xff,0xc4,0xff,0xff,0xff,0xf9,0x0,0x0,0x0,0xc0,0x0,0x0,0x0,0xf2,0x0,0x0,0x0,0xe3,0x1,0x0,0x0,0x12,0x3,0x0,0x0,0xd6,0x0,0x0,0x0,0xf4,0xfe,0xff,0xff,0x3,0xfc,0xff,0xff,0xcb,0x3,0x0,0x0,0x83,0x1,0x0,0x0,0x1d,0x0,0x0,0x0,0x6e,0xfd,0xff,0xff,0xb1,0x3,0x0,0x0,0x39,0xff,0xff,0xff,0x76,0x0,0x0,0x0,0x20,0xfe,0xff,0xff,0x75,0xfb,0xff,0xff,0xb2,0xf7,0xff,0xff,0x4,0x0,0x0,0x0,0x0,0x6,0x0,0x0,0xd,0x18,0x3a,0x2e,0x3c,0xb6,0xae,0x48,0x0,0xdc,0xf3,0xe9,0xfe,0xd3,0xb7,0xac,0xba,0x49,0x13,0xbf,0x3d,0x2d,0xe9,0x6,0xf0,0xee,0xb8,0xd8,0xfc,0xdd,0xbc,0xe7,0x36,0xe0,0x2f,0xad,0x18,0x3c,0x99,0x32,0xf9,0xcc,0xdc,0xcf,0x2b,0x35,0xbd,0xd6,0xaf,0xf9,0xdc,0xff,0xe2,0x20,0xe3,0xdb,0x52,0xec,0x2d,0x23,0xd7,0xdf,0xdf,0xb,0x17,0x36,0xdc,0xf6,0xbd,0x49,0x81,0x14,0xb,0xf9,0x10,0x29,0xbb,0x3b,0x31,0x45,0x12,0x9d,0x31,0xff,0xec,0x2c,0x21,0x21,0xdf,0x2,0x4c,0xdf,0x95,0xde,0xcf,0xd9,0x8f,0xa7,0xa1,0x31,0x24,0x9,0xcc,0x9f,0x95,0xdd,0xe5,0xbe,0x19,0xe5,0xd4,0x22,0x2e,0xaf,0x2,0x50,0x22,0xf1,0xb9,0xae,0x14,0xe7,0x91,0x13,0xee,0xad,0x9d,0xb0,0xdc,0xb1,0x81,0x41,0xf1,0xe1,0xe0,0xb7,0x33,0x44,0x20,0xd6,0xf0,0xab,0xd,0xfb,0x3e,0x8,0x23,0xe6,0xd5,0x21,0xc5,0xbc,0xf4,0xc0,0xe4,0x67,0xdf,0x42,0x47,0xed,0x25,0x3d,0xb2,0x1a,0xec,0xde,0xe9,0xd9,0xfc,0xb4,0x16,0x8,0xa8,0xa7,0x54,0x72,0xf1,0xee,0x1e,0x14,0x8d,0x11,0x4d,0xee,0x48,0xe9,0xca,0x42,0x37,0x13,0xd6,0xad,0xb4,0xc3,0xd9,0x58,0x81,0x13,0xc8,0x1f,0x39,0xe7,0x38,0xf0,0x4,0xd1,0xc9,0xc7,0xc1,0x2,0xc5,0x36,0x29,0x4c,0x97,0x39,0xe2,0xc5,0xf6,0x30,0xe8,0x99,0x58,0xe3,0x5e,0x17,0xbc,0x37,0x5f,0xd0,0xef,0xc4,0x3b,0x3e,0x1f,0xb6,0xd8,0x1,0xce,0x10,0x35,0xd,0xbc,0x14,0xe7,0xf9,0xe5,0xf3,0x38,0xee,0x8,0x5d,0xf8,0x30,0x23,0xf5,0x0,0x35,0x68,0xed,0x3d,0x1c,0x35,0x3f,0xd5,0xa,0x19,0xa0,0xf2,0xef,0x8,0xdf,0x9d,0x9,0xf1,0x3a,0x1,0x6,0xee,0xf0,0xba,0xb2,0x44,0x1c,0xd6,0xdb,0x2,0xae,0xf6,0xfa,0x58,0xe3,0x22,0x34,0xed,0x2f,0x19,0xb6,0xc6,0x52,0xeb,0xc3,0x32,0x18,0xe7,0x9,0xe,0xe3,0xf8,0xf8,0xbc,0xbe,0x22,0x3f,0xa7,0x3d,0xfe,0xf9,0xcc,0x5a,0x0,0xa1,0x51,0xf8,0xa,0xdd,0x8c,0xca,0xda,0xbf,0xb5,0xde,0x1d,0xd1,0x30,0xe1,0xb7,0x21,0x15,0x27,0xd7,0xd5,0x8d,0x39,0x2b,0xf9,0x10,0xa,0x11,0xc6,0xef,0xea,0x9,0x90,0x2,0xc1,0x2a,0xea,0x8e,0xdb,0x20,0xdd,0xa,0xd,0xef,0xe5,0xea,0x81,0xd1,0x53,0x13,0xd0,0xdc,0xb1,0xd3,0xd8,0x17,0xea,0x10,0x36,0x1e,0x57,0xdd,0x46,0x3a,0x21,0x15,0xee,0x3,0xa6,0x71,0xa7,0xcc,0xa5,0x30,0x3e,0xf0,0xbc,0xe5,0x14,0xc,0xf7,0xa3,0x24,0x3e,0x2e,0xa4,0x7f,0x1b,0xc0,0x41,0xd4,0xab,0x39,0x35,0xc0,0x9f,0xec,0xba,0xa9,0x14,0x14,0xaa,0x8c,0xae,0x56,0xd2,0x47,0x40,0x1e,0xfc,0xa3,0xf0,0xe0,0x10,0xaa,0x48,0xd5,0x9,0xd6,0x9,0xfb,0x3c,0xdd,0xbc,0x99,0x55,0x1,0xe6,0xed,0xc1,0x72,0x6,0x15,0x3b,0x1d,0xd2,0x6d,0x2b,0xbe,0x91,0x21,0xd0,0x3d,0x67,0xdc,0x2f,0x34,0x1c,0xda,0x28,0x92,0x12,0xb9,0xda,0xed,0xd6,0xa8,0x3b,0xed,0x46,0xe8,0xc,0x2e,0xf7,0xe5,0xcd,0xfa,0xe6,0x3f,0x3,0x7,0xce,0x2d,0xdd,0xf8,0x60,0xe8,0xdb,0xd,0xe6,0x0,0x26,0x81,0x10,0xfb,0xfe,0xe,0xdf,0x1d,0xe9,0xcd,0xe,0xe7,0xcb,0x3,0xb2,0xc,0xc2,0xe7,0xc5,0x52,0x47,0x31,0x9d,0x3d,0xbd,0xff,0xe7,0xb9,0xe2,0x4b,0xd7,0xf5,0xb9,0xaa,0xee,0x1c,0xee,0xbb,0xd1,0x1c,0xbc,0x0,0x10,0x1c,0xe8,0x20,0xbb,0x32,0x42,0xde,0xf5,0x56,0x42,0xe3,0xb7,0x48,0xe,0xc,0x50,0xe4,0xdf,0xbd,0xf0,0xe6,0xf6,0xac,0xe8,0x2e,0x3e,0xa0,0x13,0xf3,0xcd,0xf3,0x45,0x55,0xa7,0x19,0x95,0x97,0x23,0xec,0x8,0xe,0x5a,0xb6,0xc6,0xc3,0x1d,0x81,0x3e,0x9c,0xdb,0x1a,0xd,0xe4,0xfe,0xf6,0x25,0x36,0xdf,0x30,0xb,0xdb,0xdd,0xc2,0xf7,0x1b,0xd8,0xc6,0x3b,0xfa,0x34,0x9,0xc,0x36,0xa5,0x1,0xb8,0x11,0x9c,0xb1,0x8,0xe6,0x1f,0xed,0x2,0x7,0xee,0xb9,0xd0,0x5c,0x50,0xa4,0x9f,0x24,0x1d,0x62,0x32,0xd4,0xfe,0x24,0xc5,0xf7,0x4e,0xe6,0x95,0x43,0xc7,0x9a,0x4a,0xca,0x8,0x76,0xa7,0x36,0x95,0xd2,0x3d,0xbd,0x5d,0x4a,0x18,0x45,0x4f,0x2e,0xac,0x64,0xf7,0xec,0xaa,0x2a,0xec,0xa,0xf8,0xfd,0x5a,0x40,0xa3,0x38,0xda,0x51,0xf2,0xaa,0x1d,0x2b,0x44,0x2c,0x2a,0xe0,0xd7,0xd9,0xe9,0x2f,0x30,0x6,0x1d,0x10,0xd3,0x3f,0xf8,0x3c,0xdc,0xbe,0xfd,0x49,0x19,0x12,0x55,0x8,0xa1,0xf9,0x29,0x51,0x10,0xb3,0xee,0x35,0x19,0xb2,0xe6,0xc0,0x26,0xdb,0xf,0xf6,0x2,0xf3,0x2b,0xf7,0xff,0x1f,0x13,0x31,0xe5,0xd8,0x31,0xe6,0xd4,0xcf,0x2,0xbf,0xc4,0xc1,0xc8,0xdf,0xea,0x81,0xaf,0x18,0x3b,0x28,0xbd,0xe5,0xd4,0xee,0x1f,0x26,0x10,0xbe,0x15,0xfd,0xca,0xbb,0xf0,0x9,0xfb,0x2c,0x36,0xd,0xec,0xf6,0x6,0x26,0x8d,0x2,0xd3,0xc8,0xdc,0xfc,0xe9,0x1f,0x10,0x34,0x45,0xae,0x52,0x22,0x2b,0xd2,0x9,0x1e,0x1c,0xfe,0xdd,0x45,0x1e,0xc7,0x39,0xe0,0x1a,0xc2,0x9e,0x92,0x17,0xba,0xe9,0xcb,0xa1,0xe0,0xd9,0xff,0x1d,0xbe,0x32,0x3c,0xe0,0xd0,0xb6,0x57,0x11,0xe3,0xae,0x7e,0xd0,0xe,0xd5,0xaa,0x27,0xbd,0x1c,0xbe,0x81,0x11,0x9,0x7,0x59,0xf9,0x1d,0x7,0x8b,0xd3,0xc,0x49,0x4f,0xac,0x5d,0xa0,0xd1,0x4a,0xc7,0x6,0x32,0x52,0x43,0x2d,0xd,0xca,0xf6,0x66,0xd8,0xa4,0x45,0x28,0xe3,0xe5,0xc0,0x95,0x1a,0xc5,0x15,0xe4,0x39,0x9f,0xc5,0xc2,0xcf,0xb6,0x0,0xb0,0x10,0x4c,0x56,0x52,0x20,0x31,0xa1,0xc4,0xc6,0x36,0xf9,0x1f,0xc3,0x46,0x1a,0xec,0x46,0x2,0x31,0xa8,0xd1,0xb5,0xc4,0x31,0xfc,0x26,0x9,0x1,0xd3,0x15,0x9,0xce,0x1e,0x0,0xd9,0xe4,0x4d,0x13,0x41,0xe6,0xe2,0x13,0xb4,0x59,0xc,0xee,0xf0,0x32,0xe1,0xc9,0xa7,0xcc,0x1f,0x45,0x7,0xf8,0x60,0x3f,0x70,0x2f,0xf5,0xb7,0x9d,0xb8,0x81,0xcf,0x1e,0x62,0x2b,0xf0,0xed,0x9e,0x3e,0x4d,0xe8,0xf4,0x55,0x8b,0xf2,0xca,0xd8,0xd1,0xba,0x20,0x1f,0xba,0xcd,0x44,0x2d,0x1e,0xa5,0xf1,0xf3,0xa5,0x14,0x81,0xfd,0x99,0xee,0x38,0xc,0x86,0xcb,0x52,0x47,0x8e,0xc2,0x12,0xee,0xc,0xe0,0xeb,0x17,0xa,0xea,0xff,0x89,0x19,0x1c,0x20,0xe3,0xd8,0xe9,0x3a,0xaf,0xeb,0xd8,0x88,0xd8,0xb2,0xd0,0x1,0x4c,0xf0,0x26,0x9d,0x25,0xf4,0x8,0xb5,0xf0,0x30,0x74,0x4f,0x9,0x54,0xc6,0xe0,0xfd,0x22,0x22,0x25,0x24,0xa8,0xfc,0xb3,0xa7,0xf7,0xd2,0xe,0xe,0x4,0xca,0x3a,0x3e,0xca,0x49,0x43,0xb6,0x4c,0x36,0xd1,0xae,0xd,0x41,0x25,0xfd,0xba,0x15,0x30,0x20,0x13,0x5b,0xf1,0xa2,0x3e,0xb4,0x1e,0x40,0xa1,0x3,0x3e,0xb1,0xc5,0xa8,0xd,0x55,0xfb,0xd7,0x91,0x23,0xca,0x36,0x0,0xc1,0x22,0x20,0xf7,0xcb,0xce,0x1a,0x19,0xf9,0x4,0xde,0x24,0x7,0x2e,0x39,0x14,0x38,0x24,0x20,0xd5,0xe1,0xd2,0xe5,0xba,0x46,0xfa,0x39,0xbb,0x2a,0xc7,0xf7,0xe5,0xbc,0xfc,0xfe,0xff,0xbd,0xf2,0x4d,0x10,0xd1,0x77,0x31,0x42,0xa3,0xd,0x17,0x2,0x48,0xcd,0xd4,0xf8,0xf1,0x5b,0xe1,0xfd,0x23,0x33,0xce,0xa5,0xf0,0xee,0xc8,0x2e,0xd6,0x7f,0x85,0xc2,0xa1,0x44,0xbc,0xb0,0x52,0x6e,0xed,0x46,0xef,0xf3,0xac,0xf0,0x41,0xfd,0x56,0x3c,0x5f,0x1d,0xe9,0x1e,0xdd,0xef,0x19,0xc1,0xa1,0x34,0x3f,0x74,0xc1,0x1a,0xe6,0xcb,0x1c,0xee,0xea,0x17,0x3f,0xa2,0x8e,0x35,0xf7,0x3a,0xac,0xfc,0x8b,0x36,0x2e,0x40,0xdb,0x38,0x4f,0xd,0xab,0xf6,0x29,0x37,0x1c,0xbc,0x54,0xd5,0x27,0xca,0x24,0xa6,0xf1,0xc0,0x1b,0xe1,0xb,0xe6,0x98,0x4a,0xa2,0x9e,0xd8,0xf8,0x8,0x21,0x8,0xff,0xf8,0x1f,0x4f,0x58,0x81,0x1f,0x5b,0x35,0xc5,0x32,0xe7,0xa3,0xd6,0xd6,0x33,0x73,0xad,0xa,0xf9,0xdc,0xe3,0x30,0xdc,0x59,0x57,0xab,0x1,0xf,0xcb,0xf2,0xc9,0xa6,0xf1,0xec,0x15,0x44,0xe5,0x2e,0x81,0xda,0xa7,0xda,0xc0,0xe,0x3,0xfc,0x1a,0xfd,0x1e,0x13,0xcf,0x6,0xf,0x4e,0x18,0x56,0xfd,0xee,0xc0,0x26,0xed,0xc9,0x3e,0xdf,0x5b,0xb1,0x21,0xe7,0x4d,0x6,0x24,0xa0,0xf1,0x43,0x55,0xed,0x4e,0xee,0x7,0x22,0x54,0xd8,0x48,0x79,0x3f,0x39,0xfa,0xb2,0x6d,0x5,0xb3,0xe5,0x3,0xb3,0x4d,0x20,0x76,0xe9,0xa5,0x35,0xf9,0x22,0x56,0xc,0x15,0x3c,0x2f,0x6,0x27,0x41,0xe9,0xe8,0x4d,0xbc,0xe0,0x18,0xfb,0xbf,0x8e,0xb1,0xc8,0x9,0xe7,0x60,0xd3,0xa,0xb3,0xe5,0x53,0x1a,0xd3,0x14,0xff,0x41,0x1f,0x1,0xd9,0x45,0xdf,0xe6,0x81,0xb6,0x32,0xe9,0xc0,0xf8,0x83,0xb9,0x1a,0x1d,0xae,0x2f,0xdb,0xd3,0xcd,0xe0,0xa,0x33,0x23,0x1d,0x3f,0xc3,0x3d,0x4b,0x25,0x14,0x12,0x4f,0x86,0x2e,0xfb,0x2e,0xba,0xa3,0xf4,0xaf,0xd9,0xc6,0x26,0x19,0xb0,0xb0,0x8,0x2d,0xfe,0xe7,0x6,0x34,0x4b,0x39,0x23,0xf6,0xdf,0xd0,0x12,0xee,0x95,0x10,0x8,0xfa,0x9,0x16,0xed,0xe2,0x31,0x5a,0xea,0xe4,0xd1,0x1f,0x4f,0x4c,0xd8,0xee,0x2,0x41,0xb,0x3d,0x4d,0x44,0xc6,0x12,0xb1,0x50,0xce,0x21,0x91,0xab,0xc4,0xf2,0xe8,0xf9,0xe5,0xb3,0xd9,0x29,0x42,0x3d,0x5a,0xd4,0x47,0xf5,0x1e,0xe7,0x1b,0x50,0xe0,0xae,0xf3,0x78,0xf3,0x3c,0x1e,0x81,0x5,0x3d,0xba,0xbe,0xfc,0x13,0x12,0x28,0xd5,0x3,0xb6,0xb7,0xac,0xce,0x26,0x1d,0x4d,0x57,0x44,0xb6,0xc,0x47,0xc4,0xaa,0x57,0x47,0xb4,0x13,0xf6,0x3c,0x40,0x34,0x8f,0x57,0xb9,0x7,0x39,0xf8,0x1b,0x49,0xae,0xfd,0xdc,0x2b,0xdd,0x15,0xe4,0xf2,0xbe,0xfd,0xff,0xff,0x4,0x0,0x0,0x0,0x40,0x0,0x0,0x0,0x8a,0x15,0x0,0x0,0x76,0x1a,0x0,0x0,0x31,0x3,0x0,0x0,0x55,0x12,0x0,0x0,0x82,0x8,0x0,0x0,0x4a,0x15,0x0,0x0,0x9,0x8,0x0,0x0,0x0,0x1,0x0,0x0,0x35,0xb,0x0,0x0,0x82,0x6,0x0,0x0,0xbc,0x17,0x0,0x0,0x37,0xfd,0xff,0xff,0x8c,0x4,0x0,0x0,0xa8,0xe7,0xff,0xff,0x7f,0xe,0x0,0x0,0x83,0xf9,0xff,0xff,0xa,0xfe,0xff,0xff,0x4,0x0,0x0,0x0,0x0,0x1,0x0,0x0,0xb0,0x59,0x7f,0x96,0x60,0xfe,0x76,0xf5,0x43,0x31,0x1c,0xd2,0xfb,0x9c,0x5e,0x8f,0x34,0xd9,0x85,0x8b,0x2,0x30,0xd8,0x60,0xbd,0x81,0x9,0x2f,0x3e,0xf4,0xec,0x74,0x2c,0xd9,0x9f,0xa9,0xf1,0x7f,0xd6,0x77,0xb1,0xba,0x1e,0x3a,0x72,0x7,0xe1,0x3d,0xb6,0x14,0x63,0x9f,0x72,0xde,0x7f,0xe8,0x49,0x33,0x18,0xd0,0xe0,0xc6,0x34,0xaa,0x62,0xfa,0xa6,0x19,0x86,0xd,0xbe,0x16,0xe5,0xcf,0x11,0x43,0x34,0xf2,0x43,0x7f,0xfc,0x16,0xd2,0x2b,0xcc,0xc,0x81,0xd1,0xfa,0xcc,0xe9,0xc6,0xe2,0x6,0x1c,0x60,0xb3,0x33,0x7f,0x90,0x44,0xeb,0x78,0x10,0x64,0x38,0x18,0xc7,0xff,0xc0,0x1c,0x8a,0x7,0x4,0xf5,0x13,0xd8,0x5,0x9f,0xef,0x2,0xa4,0xde,0xc9,0xf7,0x5,0x37,0x7f,0xf,0x16,0xcb,0x15,0xca,0x1e,0x92,0xe7,0x1,0x9a,0x8,0x81,0xdb,0x6,0x6,0x74,0x9,0x35,0xf2,0x21,0xe4,0x23,0xa6,0x4d,0x81,0xb6,0xd4,0x2d,0x2f,0x9,0xe,0x1d,0xae,0x24,0x7d,0x99,0x7c,0xd3,0x7f,0xf6,0x2a,0x33,0x18,0xb0,0xf2,0xbb,0x41,0x96,0xad,0x2e,0x70,0x9c,0x2c,0xf5,0x77,0x2,0x3f,0x25,0xf,0xf0,0xd2,0x81,0x36,0xa6,0xfb,0x30,0xc4,0xf9,0xdd,0xe,0x81,0xe6,0x2,0xd8,0xf2,0xc7,0xdf,0x3c,0xec,0x45,0x23,0xc7,0xcf,0x3,0x7,0x1e,0xfe,0x47,0xda,0x81,0x8,0x1b,0x39,0xd8,0x10,0x69,0xe,0x4,0xcc,0xff,0xd,0x23,0xf8,0x43,0xf4,0x81,0xb,0x2b,0x24,0xe7,0xfe,0x45,0x8,0x15,0xed,0x2c,0xe5,0x3,0x81,0xfc,0xf4,0xce,0xf4,0xcd,0xe8,0x24,0xd,0x1d,0x16,0xff,0xff,0xff,0x4,0x0,0x0,0x0,0x40,0x0,0x0,0x0,0x2c,0xcf,0xff,0xff,0x82,0x27,0x0,0x0,0x6c,0x13,0x0,0x0,0x95,0xd8,0xff,0xff,0xb9,0x7,0x0,0x0,0x72,0x31,0x0,0x0,0x40,0xd5,0xff,0xff,0x66,0x2c,0x0,0x0,0x29,0x3a,0x0,0x0,0x43,0x1f,0x0,0x0,0xbb,0xd5,0xff,0xff,0x9c,0xde,0xff,0xff,0xbf,0x2d,0x0,0x0,0xc7,0xb,0x0,0x0,0xbc,0x5,0x0,0x0,0x3d,0x26,0x0,0x0,0x62,0xff,0xff,0xff,0x4,0x0,0x0,0x0,0x10,0x0,0x0,0x0,0x2b,0x9a,0xb2,0x29,0xbe,0xbc,0x2c,0xa8,0xaa,0xbe,0x2b,0x3b,0xa8,0x81,0x82,0xc2,0x7e,0xff,0xff,0xff,0x4,0x0,0x0,0x0,0x4,0x0,0x0,0x0,0x86,0xee,0xff,0xff,0x8e,0xff,0xff,0xff,0x4,0x0,0x0,0x0,0xc,0x0,0x0,0x0,0xff,0xff,0xff,0xff,0x20,0x0,0x0,0x0,0x10,0x0,0x0,0x0,0xa6,0xff,0xff,0xff,0x4,0x0,0x0,0x0,0xc,0x0,0x0,0x0,0xff,0xff,0xff,0xff,0x40,0x0,0x0,0x0,0x10,0x0,0x0,0x0,0xbe,0xff,0xff,0xff,0x4,0x0,0x0,0x0,0xc,0x0,0x0,0x0,0xff,0xff,0xff,0xff,0x40,0x0,0x0,0x0,0x20,0x0,0x0,0x0,0xd6,0xff,0xff,0xff,0x4,0x0,0x0,0x0,0x4,0x0,0x0,0x0,0x1,0x0,0x0,0x0,0xe6,0xff,0xff,0xff,0x4,0x0,0x0,0x0,0xc,0x0,0x0,0x0,0xff,0xff,0xff,0xff,0x80,0x0,0x0,0x0,0x20,0x0,0x0,0x0,0x0,0x0,0x6,0x0,0x8,0x0,0x4,0x0,0x6,0x0,0x0,0x0,0x4,0x0,0x0,0x0,0x4,0x0,0x0,0x0,0xfd,0xff,0xff,0xff,0xe0,0xdf,0xff,0xff,0xe4,0xdf,0xff,0xff,0xf,0x0,0x0,0x0,0x4d,0x4c,0x49,0x52,0x20,0x43,0x6f,0x6e,0x76,0x65,0x72,0x74,0x65,0x64,0x2e,0x0,0x1,0x0,0x0,0x0,0x14,0x0,0x0,0x0,0x0,0x0,0xe,0x0,0x18,0x0,0x14,0x0,0x10,0x0,0xc,0x0,0x8,0x0,0x4,0x0,0xe,0x0,0x0,0x0,0x14,0x0,0x0,0x0,0x1c,0x0,0x0,0x0,0x60,0x4,0x0,0x0,0x64,0x4,0x0,0x0,0x68,0x4,0x0,0x0,0x4,0x0,0x0,0x0,0x6d,0x61,0x69,0x6e,0x0,0x0,0x0,0x0,0x14,0x0,0x0,0x0,0x28,0x4,0x0,0x0,0xe8,0x3,0x0,0x0,0xa4,0x3,0x0,0x0,0x70,0x3,0x0,0x0,0x20,0x3,0x0,0x0,0xf8,0x2,0x0,0x0,0xb8,0x2,0x0,0x0,0x64,0x2,0x0,0x0,0x3c,0x2,0x0,0x0,0x8,0x2,0x0,0x0,0xc4,0x1,0x0,0x0,0x9c,0x1,0x0,0x0,0x68,0x1,0x0,0x0,0x24,0x1,0x0,0x0,0xfc,0x0,0x0,0x0,0xc8,0x0,0x0,0x0,0x84,0x0,0x0,0x0,0x4c,0x0,0x0,0x0,0x28,0x0,0x0,0x0,0x4,0x0,0x0,0x0,0x4e,0xfd,0xff,0xff,0xc,0x0,0x0,0x0,0x10,0x0,0x0,0x0,0xa,0x0,0x0,0x0,0x1,0x0,0x0,0x0,0x24,0x0,0x0,0x0,0x1,0x0,0x0,0x0,0x23,0x0,0x0,0x0,0x6e,0xfd,0xff,0xff,0xc,0x0,0x0,0x0,0x10,0x0,0x0,0x0,0x9,0x0,0x0,0x0,0x1,0x0,0x0,0x0,0x23,0x0,0x0,0x0,0x1,0x0,0x0,0x0,0x22,0x0,0x0,0x0,0xb2,0xfc,0xff,0xff,0x14,0x0,0x0,0x0,0x0,0x0,0x0,0x8,0x10,0x0,0x0,0x0,0x14,0x0,0x0,0x0,0x8,0x0,0x0,0x0,0xe4,0xe0,0xff,0xff,0x1,0x0,0x0,0x0,0x22,0x0,0x0,0x0,0x3,0x0,0x0,0x0,0x21,0x0,0x0,0x0,0x8,0x0,0x0,0x0,0x7,0x0,0x0,0x0,0xe6,0xfc,0xff,0xff,0x1c,0x0,0x0,0x0,0x0,0x0,0x0,0x8,0x1c,0x0,0x0,0x0,0x20,0x0,0x0,0x0,0x8,0x0,0x0,0x0,0x0,0x0,0x6,0x0,0x8,0x0,0x7,0x0,0x6,0x0,0x0,0x0,0x0,0x0,0x0,0x1,0x1,0x0,0x0,0x0,0x21,0x0,0x0,0x0,0x3,0x0,0x0,0x0,0x20,0x0,0x0,0x0,0xa,0x0,0x0,0x0,0x9,0x0,0x0,0x0,0x26,0xfd,0xff,0xff,0x14,0x0,0x0,0x0,0x0,0x0,0x0,0x1b,0x10,0x0,0x0,0x0,0x14,0x0,0x0,0x0,0x7,0x0,0x0,0x0,0x58,0xe1,0xff,0xff,0x1,0x0,0x0,0x0,0x20,0x0,0x0,0x0,0x2,0x0,0x0,0x0,0x1f,0x0,0x0,0x0,0x3,0x0,0x0,0x0,0x32,0xfe,0xff,0xff,0xc,0x0,0x0,0x0,0x10,0x0,0x0,0x0,0x5,0x0,0x0,0x0,0x1,0x0,0x0,0x0,0x1f,0x0,0x0,0x0,0x2,0x0,0x0,0x0,0x1e,0x0,0x0,0x0,0x6,0x0,0x0,0x0,0x7a,0xfd,0xff,0xff,0x14,0x0,0x0,0x0,0x0,0x0,0x0,0x5,0x24,0x0,0x0,0x0,0x28,0x0,0x0,0x0,0x6,0x0,0x0,0x0,0xd6,0xfe,0xff,0xff,0x1,0x0,0x0,0x0,0x2,0x0,0x0,0x0,0x1,0x0,0x0,0x0,0x2,0x0,0x0,0x0,0x0,0x0,0x0,0x1,0x1,0x0,0x0,0x0,0x1e,0x0,0x0,0x0,0x1,0x0,0x0,0x0,0x1d,0x0,0x0,0x0,0xba,0xfd,0xff,0xff,0x14,0x0,0x0,0x0,0x0,0x0,0x0,0x34,0x10,0x0,0x0,0x0,0x14,0x0,0x0,0x0,0x3,0x0,0x0,0x0,0xec,0xe1,0xff,0xff,0x1,0x0,0x0,0x0,0x1d,0x0,0x0,0x0,0x2,0x0,0x0,0x0,0x1c,0x0,0x0,0x0,0x3,0x0,0x0,0x0,0xc6,0xfe,0xff,0xff,0xc,0x0,0x0,0x0,0x10,0x0,0x0,0x0,0x5,0x0,0x0,0x0,0x1,0x0,0x0,0x0,0x1c,0x0,0x0,0x0,0x2,0x0,0x0,0x0,0x1b,0x0,0x0,0x0,0x5,0x0,0x0,0x0,0xe,0xfe,0xff,0xff,0x14,0x0,0x0,0x0,0x0,0x0,0x0,0x1,0x1c,0x0,0x0,0x0,0x20,0x0,0x0,0x0,0x4,0x0,0x0,0x0,0xbc,0xfe,0xff,0xff,0x0,0x0,0x0,0x1,0x1,0x0,0x0,0x0,0x1,0x0,0x0,0x0,0x1,0x0,0x0,0x0,0x1b,0x0,0x0,0x0,0x3,0x0,0x0,0x0,0x1a,0x0,0x0,0x0,0xc,0x0,0x0,0x0,0xb,0x0,0x0,0x0,0x4e,0xfe,0xff,0xff,0x14,0x0,0x0,0x0,0x0,0x0,0x0,0x34,0x10,0x0,0x0,0x0,0x14,0x0,0x0,0x0,0x3,0x0,0x0,0x0,0x80,0xe2,0xff,0xff,0x1,0x0,0x0,0x0,0x1a,0x0,0x0,0x0,0x2,0x0,0x0,0x0,0x19,0x0,0x0,0x0,0x1,0x0,0x0,0x0,0x5a,0xff,0xff,0xff,0xc,0x0,0x0,0x0,0x10,0x0,0x0,0x0,0x5,0x0,0x0,0x0,0x1,0x0,0x0,0x0,0x19,0x0,0x0,0x0,0x2,0x0,0x0,0x0,0x18,0x0,0x0,0x0,0x4,0x0,0x0,0x0,0xa2,0xfe,0xff,0xff,0x24,0x0,0x0,0x0,0x0,0x0,0x0,0x5,0x34,0x0,0x0,0x0,0x38,0x0,0x0,0x0,0x6,0x0,0x0,0x0,0x0,0x0,0xe,0x0,0x18,0x0,0x17,0x0,0x10,0x0,0xc,0x0,0x8,0x0,0x4,0x0,0xe,0x0,0x0,0x0,0x1,0x0,0x0,0x0,0x2,0x0,0x0,0x0,0x1,0x0,0x0,0x0,0x2,0x0,0x0,0x0,0x0,0x0,0x0,0x1,0x1,0x0,0x0,0x0,0x18,0x0,0x0,0x0,0x1,0x0,0x0,0x0,0x17,0x0,0x0,0x0,0xf2,0xfe,0xff,0xff,0x14,0x0,0x0,0x0,0x0,0x0,0x0,0x34,0x10,0x0,0x0,0x0,0x14,0x0,0x0,0x0,0x3,0x0,0x0,0x0,0x24,0xe3,0xff,0xff,0x1,0x0,0x0,0x0,0x17,0x0,0x0,0x0,0x2,0x0,0x0,0x0,0x16,0x0,0x0,0x0,0x3,0x0,0x0,0x0,0x0,0x0,0xa,0x0,0x10,0x0,0xc,0x0,0x8,0x0,0x4,0x0,0xa,0x0,0x0,0x0,0xc,0x0,0x0,0x0,0x10,0x0,0x0,0x0,0x5,0x0,0x0,0x0,0x1,0x0,0x0,0x0,0x16,0x0,0x0,0x0,0x2,0x0,0x0,0x0,0x15,0x0,0x0,0x0,0x2,0x0,0x0,0x0,0x52,0xff,0xff,0xff,0x20,0x0,0x0,0x0,0x0,0x0,0x0,0x1,0x28,0x0,0x0,0x0,0x2c,0x0,0x0,0x0,0x4,0x0,0x0,0x0,0xc,0x0,0x10,0x0,0x0,0x0,0xc,0x0,0x8,0x0,0x7,0x0,0xc,0x0,0x0,0x0,0x0,0x0,0x0,0x1,0x1,0x0,0x0,0x0,0x1,0x0,0x0,0x0,0x1,0x0,0x0,0x0,0x15,0x0,0x0,0x0,0x3,0x0,0x0,0x0,0x14,0x0,0x0,0x0,0xe,0x0,0x0,0x0,0xd,0x0,0x0,0x0,0x9e,0xff,0xff,0xff,0x14,0x0,0x0,0x0,0x0,0x0,0x0,0x34,0x10,0x0,0x0,0x0,0x14,0x0,0x0,0x0,0x3,0x0,0x0,0x0,0xd0,0xe3,0xff,0xff,0x1,0x0,0x0,0x0,0x14,0x0,0x0,0x0,0x2,0x0,0x0,0x0,0x13,0x0,0x0,0x0,0x1,0x0,0x0,0x0,0xce,0xff,0xff,0xff,0x14,0x0,0x0,0x0,0x0,0x0,0x0,0xb,0x10,0x0,0x0,0x0,0x14,0x0,0x0,0x0,0x2,0x0,0x0,0x0,0x0,0xe4,0xff,0xff,0x1,0x0,0x0,0x0,0x13,0x0,0x0,0x0,0x2,0x0,0x0,0x0,0x12,0x0,0x0,0x0,0xf,0x0,0x0,0x0,0x0,0x0,0xe,0x0,0x18,0x0,0x14,0x0,0x10,0x0,0xc,0x0,0xb,0x0,0x4,0x0,0xe,0x0,0x0,0x0,0x14,0x0,0x0,0x0,0x0,0x0,0x0,0x15,0x10,0x0,0x0,0x0,0x14,0x0,0x0,0x0,0x1,0x0,0x0,0x0,0x40,0xe4,0xff,0xff,0x1,0x0,0x0,0x0,0x12,0x0,0x0,0x0,0x2,0x0,0x0,0x0,0x11,0x0,0x0,0x0,0x10,0x0,0x0,0x0,0x0,0x0,0xa,0x0,0xc,0x0,0x0,0x0,0x8,0x0,0x4,0x0,0xa,0x0,0x0,0x0,0x8,0x0,0x0,0x0,0xc,0x0,0x0,0x0,0x1,0x0,0x0,0x0,0x11,0x0,0x0,0x0,0x1,0x0,0x0,0x0,0x0,0x0,0x0,0x0,0x1,0x0,0x0,0x0,0x24,0x0,0x0,0x0,0x1,0x0,0x0,0x0,0x0,0x0,0x0,0x0,0x25,0x0,0x0,0x0,0x40,0x1b,0x0,0x0,0xec,0x1a,0x0,0x0,0x94,0x1a,0x0,0x0,0x58,0x1a,0x0,0x0,0x18,0x1a,0x0,0x0,0xd8,0x19,0x0,0x0,0x98,0x19,0x0,0x0,0x2c,0x19,0x0,0x0,0xc4,0x18,0x0,0x0,0xb0,0x17,0x0,0x0,0x94,0x16,0x0,0x0,0x80,0x15,0x0,0x0,0x5c,0x14,0x0,0x0,0x88,0x12,0x0,0x0,0xa4,0x10,0x0,0x0,0x40,0x10,0x0,0x0,0xdc,0xf,0x0,0x0,0x64,0xf,0x0,0x0,0xa8,0xe,0x0,0x0,0x4,0xe,0x0,0x0,0x5c,0xd,0x0,0x0,0xe0,0xb,0x0,0x0,0x90,0xa,0x0,0x0,0xe8,0x9,0x0,0x0,0x4c,0x9,0x0,0x0,0xac,0x8,0x0,0x0,0x4,0x8,0x0,0x0,0x88,0x6,0x0,0x0,0x38,0x5,0x0,0x0,0x90,0x4,0x0,0x0,0xf4,0x3,0x0,0x0,0x54,0x3,0x0,0x0,0xbc,0x2,0x0,0x0,0x88,0x1,0x0,0x0,0xe4,0x0,0x0,0x0,0x60,0x0,0x0,0x0,0x4,0x0,0x0,0x0,0x6a,0xe5,0xff,0xff,0x0,0x0,0x0,0x1,0x14,0x0,0x0,0x0,0x1c,0x0,0x0,0x0,0x1c,0x0,0x0,0x0,0x25,0x0,0x0,0x0,0x34,0x0,0x0,0x0,0x2,0x0,0x0,0x0,0xff,0xff,0xff,0xff,0x1,0x0,0x0,0x0,0x50,0xe5,0xff,0xff,0x1b,0x0,0x0,0x0,0x53,0x74,0x61,0x74,0x65,0x66,0x75,0x6c,0x50,0x61,0x72,0x74,0x69,0x74,0x69,0x6f,0x6e,0x65,0x64,0x43,0x61,0x6c,0x6c,0x5f,0x31,0x3a,0x30,0x0,0x2,0x0,0x0,0x0,0x1,0x0,0x0,0x0,0x1,0x0,0x0,0x0,0x5a,0xf1,0xff,0xff,0x0,0x0,0x0,0x1,0x18,0x0,0x0,0x0,0x20,0x0,0x0,0x0,0x40,0x0,0x0,0x0,0x24,0x0,0x0,0x0,0x0,0x0,0x0,0x9,0x58,0x0,0x0,0x0,0x2,0x0,0x0,0x0,0xff,0xff,0xff,0xff,0x1,0x0,0x0,0x0,0xb4,0xe7,0xff,0xff,0x8,0x0,0x0,0x0,0x14,0x0,0x0,0x0,0x1,0x0,0x0,0x0,0x80,0xff,0xff,0xff,0xff,0xff,0xff,0xff,0x0,0x0,0x0,0x0,0x1,0x0,0x0,0x0,0x0,0x0,0x80,0x3b,0x1c,0x0,0x0,0x0,0x53,0x74,0x61,0x74,0x65,0x66,0x75,0x6c,0x50,0x61,0x72,0x74,0x69,0x74,0x69,0x6f,0x6e,0x65,0x64,0x43,0x61,0x6c,0x6c,0x5f,0x31,0x3a,0x30,0x31,0x0,0x0,0x0,0x0,0x2,0x0,0x0,0x0,0x1,0x0,0x0,0x0,0x1,0x0,0x0,0x0,0xda,0xf1,0xff,0xff,0x0,0x0,0x0,0x1,0x18,0x0,0x0,0x0,0x20,0x0,0x0,0x0,0x40,0x0,0x0,0x0,0x23,0x0,0x0,0x0,0x0,0x0,0x0,0x9,0x78,0x0,0x0,0x0,0x2,0x0,0x0,0x0,0xff,0xff,0xff,0xff,0x1,0x0,0x0,0x0,0x34,0xe8,0xff,0xff,0x8,0x0,0x0,0x0,0x14,0x0,0x0,0x0,0x1,0x0,0x0,0x0,0x68,0x0,0x0,0x0,0x0,0x0,0x0,0x0,0x0,0x0,0x0,0x0,0x1,0x0,0x0,0x0,0xb6,0xdf,0xb8,0x3d,0x3e,0x0,0x0,0x0,0x73,0x65,0x71,0x75,0x65,0x6e,0x74,0x69,0x61,0x6c,0x5f,0x39,0x5f,0x31,0x2f,0x64,0x65,0x6e,0x73,0x65,0x5f,0x31,0x39,0x5f,0x31,0x2f,0x4d,0x61,0x74,0x4d,0x75,0x6c,0x3b,0x73,0x65,0x71,0x75,0x65,0x6e,0x74,0x69,0x61,0x6c,0x5f,0x39,0x5f,0x31,0x2f,0x64,0x65,0x6e,0x73,0x65,0x5f,0x31,0x39,0x5f,0x31,0x2f,0x41,0x64,0x64,0x0,0x0,0x2,0x0,0x0,0x0,0x1,0x0,0x0,0x0,0x1,0x0,0x0,0x0,0x7a,0xf2,0xff,0xff,0x0,0x0,0x0,0x1,0x18,0x0,0x0,0x0,0x20,0x0,0x0,0x0,0x3c,0x0,0x0,0x0,0x22,0x0,0x0,0x0,0x0,0x0,0x0,0x9,0x8,0x1,0x0,0x0,0x2,0x0,0x0,0x0,0xff,0xff,0xff,0xff,0x10,0x0,0x0,0x0,0xd4,0xe8,0xff,0xff,0x8,0x0,0x0,0x0,0x10,0x0,0x0,0x0,0x1,0x0,0x0,0x0,0x80,0xff,0xff,0xff,0xff,0xff,0xff,0xff,0x1,0x0,0x0,0x0,0x6,0x28,0x97,0x3c,0xd1,0x0,0x0,0x0,0x73,0x65,0x71,0x75,0x65,0x6e,0x74,0x69,0x61,0x6c,0x5f,0x39,0x5f,0x31,0x2f,0x64,0x65,0x6e,0x73,0x65,0x5f,0x31,0x38,0x5f,0x31,0x2f,0x4d,0x61,0x74,0x4d,0x75,0x6c,0x3b,0x73,0x65,0x71,0x75,0x65,0x6e,0x74,0x69,0x61,0x6c,0x5f,0x39,0x5f,0x31,0x2f,0x64,0x65,0x6e,0x73,0x65,0x5f,0x31,0x38,0x5f,0x31,0x2f,0x42,0x69,0x61,0x73,0x41,0x64,0x64,0x3b,0x73,0x65,0x71,0x75,0x65,0x6e,0x74,0x69,0x61,0x6c,0x5f,0x39,0x5f,0x31,0x2f,0x62,0x61,0x74,0x63,0x68,0x5f,0x6e,0x6f,0x72,0x6d,0x61,0x6c,0x69,0x7a,0x61,0x74,0x69,0x6f,0x6e,0x5f,0x33,0x39,0x5f,0x31,0x2f,0x62,0x61,0x74,0x63,0x68,0x6e,0x6f,0x72,0x6d,0x2f,0x6d,0x75,0x6c,0x5f,0x31,0x3b,0x73,0x65,0x71,0x75,0x65,0x6e,0x74,0x69,0x61,0x6c,0x5f,0x39,0x5f,0x31,0x2f,0x72,0x65,0x5f,0x6c,0x75,0x5f,0x32,0x39,0x5f,0x31,0x2f,0x52,0x65,0x6c,0x75,0x3b,0x73,0x65,0x71,0x75,0x65,0x6e,0x74,0x69,0x61,0x6c,0x5f,0x39,0x5f,0x31,0x2f,0x62,0x61,0x74,0x63,0x68,0x5f,0x6e,0x6f,0x72,0x6d,0x61,0x6c,0x69,0x7a,0x61,0x74,0x69,0x6f,0x6e,0x5f,0x33,0x39,0x5f,0x31,0x2f,0x62,0x61,0x74,0x63,0x68,0x6e,0x6f,0x72,0x6d,0x2f,0x61,0x64,0x64,0x5f,0x31,0x0,0x0,0x0,0x2,0x0,0x0,0x0,0x1,0x0,0x0,0x0,0x10,0x0,0x0,0x0,0xaa,0xf3,0xff,0xff,0x0,0x0,0x0,0x1,0x18,0x0,0x0,0x0,0x20,0x0,0x0,0x0,0x40,0x0,0x0,0x0,0x21,0x0,0x0,0x0,0x0,0x0,0x0,0x9,0x6c,0x0,0x0,0x0,0x2,0x0,0x0,0x0,0xff,0xff,0xff,0xff,0x10,0x0,0x0,0x0,0x4,0xea,0xff,0xff,0x8,0x0,0x0,0x0,0x14,0x0,0x0,0x0,0x1,0x0,0x0,0x0,0x80,0xff,0xff,0xff,0xff,0xff,0xff,0xff,0x0,0x0,0x0,0x0,0x1,0x0,0x0,0x0,0x66,0x49,0x22,0x3c,0x30,0x0,0x0,0x0,0x73,0x65,0x71,0x75,0x65,0x6e,0x74,0x69,0x61,0x6c,0x5f,0x39,0x5f,0x31,0x2f,0x67,0x6c,0x6f,0x62,0x61,0x6c,0x5f,0x61,0x76,0x65,0x72,0x61,0x67,0x65,0x5f,0x70,0x6f,0x6f,0x6c,0x69,0x6e,0x67,0x31,0x64,0x5f,0x39,0x5f,0x31,0x2f,0x4d,0x65,0x61,0x6e,0x0,0x0,0x0,0x0,0x2,0x0,0x0,0x0,0x1,0x0,0x0,0x0,0x10,0x0,0x0,0x0,0x3e,0xf4,0xff,0xff,0x0,0x0,0x0,0x1,0x18,0x0,0x0,0x0,0x24,0x0,0x0,0x0,0x44,0x0,0x0,0x0,0x20,0x0,0x0,0x0,0x0,0x0,0x0,0x9,0x70,0x0,0x0,0x0,0x3,0x0,0x0,0x0,0xff,0xff,0xff,0xff,0x20,0x0,0x0,0x0,0x10,0x0,0x0,0x0,0x9c,0xea,0xff,0xff,0x8,0x0,0x0,0x0,0x14,0x0,0x0,0x0,0x1,0x0,0x0,0x0,0x80,0xff,0xff,0xff,0xff,0xff,0xff,0xff,0x0,0x0,0x0,0x0,0x1,0x0,0x0,0x0,0xa,0xf9,0x4b,0x3d,0x33,0x0,0x0,0x0,0x73,0x65,0x71,0x75,0x65,0x6e,0x74,0x69,0x61,0x6c,0x5f,0x39,0x5f,0x31,0x2f,0x6d,0x61,0x78,0x5f,0x70,0x6f,0x6f,0x6c,0x69,0x6e,0x67,0x31,0x64,0x5f,0x31,0x39,0x5f,0x31,0x2f,0x4d,0x61,0x78,0x50,0x6f,0x6f,0x6c,0x31,0x64,0x2f,0x53,0x71,0x75,0x65,0x65,0x7a,0x65,0x0,0x3,0x0,0x0,0x0,0x1,0x0,0x0,0x0,0x20,0x0,0x0,0x0,0x10,0x0,0x0,0x0,0xda,0xf4,0xff,0xff,0x0,0x0,0x0,0x1,0x18,0x0,0x0,0x0,0x28,0x0,0x0,0x0,0x44,0x0,0x0,0x0,0x1f,0x0,0x0,0x0,0x0,0x0,0x0,0x9,0x68,0x0,0x0,0x0,0x4,0x0,0x0,0x0,0xff,0xff,0xff,0xff,0x1,0x0,0x0,0x0,0x20,0x0,0x0,0x0,0x10,0x0,0x0,0x0,0x3c,0xeb,0xff,0xff,0x8,0x0,0x0,0x0,0x10,0x0,0x0,0x0,0x1,0x0,0x0,0x0,0x80,0xff,0xff,0xff,0xff,0xff,0xff,0xff,0x1,0x0,0x0,0x0,0xa,0xf9,0x4b,0x3d,0x2b,0x0,0x0,0x0,0x73,0x65,0x71,0x75,0x65,0x6e,0x74,0x69,0x61,0x6c,0x5f,0x39,0x5f,0x31,0x2f,0x6d,0x61,0x78,0x5f,0x70,0x6f,0x6f,0x6c,0x69,0x6e,0x67,0x31,0x64,0x5f,0x31,0x39,0x5f,0x31,0x2f,0x4d,0x61,0x78,0x50,0x6f,0x6f,0x6c,0x31,0x64,0x0,0x4,0x0,0x0,0x0,0x1,0x0,0x0,0x0,0x1,0x0,0x0,0x0,0x20,0x0,0x0,0x0,0x10,0x0,0x0,0x0,0x72,0xf5,0xff,0xff,0x0,0x0,0x0,0x1,0x18,0x0,0x0,0x0,0x28,0x0,0x0,0x0,0x44,0x0,0x0,0x0,0x1e,0x0,0x0,0x0,0x0,0x0,0x0,0x9,0x74,0x0,0x0,0x0,0x4,0x0,0x0,0x0,0xff,0xff,0xff,0xff,0x1,0x0,0x0,0x0,0x40,0x0,0x0,0x0,0x10,0x0,0x0,0x0,0xd4,0xeb,0xff,0xff,0x8,0x0,0x0,0x0,0x10,0x0,0x0,0x0,0x1,0x0,0x0,0x0,0x80,0xff,0xff,0xff,0xff,0xff,0xff,0xff,0x1,0x0,0x0,0x0,0xa,0xf9,0x4b,0x3d,0x36,0x0,0x0,0x0,0x73,0x65,0x71,0x75,0x65,0x6e,0x74,0x69,0x61,0x6c,0x5f,0x39,0x5f,0x31,0x2f,0x6d,0x61,0x78,0x5f,0x70,0x6f,0x6f,0x6c,0x69,0x6e,0x67,0x31,0x64,0x5f,0x31,0x39,0x5f,0x31,0x2f,0x4d,0x61,0x78,0x50,0x6f,0x6f,0x6c,0x31,0x64,0x2f,0x45,0x78,0x70,0x61,0x6e,0x64,0x44,0x69,0x6d,0x73,0x0,0x0,0x4,0x0,0x0,0x0,0x1,0x0,0x0,0x0,0x1,0x0,0x0,0x0,0x40,0x0,0x0,0x0,0x10,0x0,0x0,0x0,0x16,0xf6,0xff,0xff,0x0,0x0,0x0,0x1,0x18,0x0,0x0,0x0,0x24,0x0,0x0,0x0,0x44,0x0,0x0,0x0,0x1d,0x0,0x0,0x0,0x0,0x0,0x0,0x9,0x20,0x1,0x0,0x0,0x3,0x0,0x0,0x0,0xff,0xff,0xff,0xff,0x40,0x0,0x0,0x0,0x10,0x0,0x0,0x0,0x74,0xec,0xff,0xff,0x8,0x0,0x0,0x0,0x14,0x0,0x0,0x0,0x1,0x0,0x0,0x0,0x80,0xff,0xff,0xff,0xff,0xff,0xff,0xff,0x0,0x0,0x0,0x0,0x1,0x0,0x0,0x0,0xa,0xf9,0x4b,0x3d,0xe1,0x0,0x0,0x0,0x73,0x65,0x71,0x75,0x65,0x6e,0x74,0x69,0x61,0x6c,0x5f,0x39,0x5f,0x31,0x2f,0x72,0x65,0x5f,0x6c,0x75,0x5f,0x32,0x38,0x5f,0x31,0x2f,0x52,0x65,0x6c,0x75,0x3b,0x73,0x65,0x71,0x75,0x65,0x6e,0x74,0x69,0x61,0x6c,0x5f,0x39,0x5f,0x31,0x2f,0x62,0x61,0x74,0x63,0x68,0x5f,0x6e,0x6f,0x72,0x6d,0x61,0x6c,0x69,0x7a,0x61,0x74,0x69,0x6f,0x6e,0x5f,0x33,0x38,0x5f,0x31,0x2f,0x62,0x61,0x74,0x63,0x68,0x6e,0x6f,0x72,0x6d,0x2f,0x61,0x64,0x64,0x5f,0x31,0x3b,0x73,0x65,0x71,0x75,0x65,0x6e,0x74,0x69,0x61,0x6c,0x5f,0x39,0x5f,0x31,0x2f,0x63,0x6f,0x6e,0x76,0x31,0x64,0x5f,0x31,0x39,0x5f,0x31,0x2f,0x63,0x6f,0x6e,0x76,0x6f,0x6c,0x75,0x74,0x69,0x6f,0x6e,0x2f,0x53,0x71,0x75,0x65,0x65,0x7a,0x65,0x3b,0x73,0x65,0x71,0x75,0x65,0x6e,0x74,0x69,0x61,0x6c,0x5f,0x39,0x5f,0x31,0x2f,0x62,0x61,0x74,0x63,0x68,0x5f,0x6e,0x6f,0x72,0x6d,0x61,0x6c,0x69,0x7a,0x61,0x74,0x69,0x6f,0x6e,0x5f,0x33,0x38,0x5f,0x31,0x2f,0x62,0x61,0x74,0x63,0x68,0x6e,0x6f,0x72,0x6d,0x2f,0x6d,0x75,0x6c,0x5f,0x31,0x3b,0x73,0x65,0x71,0x75,0x65,0x6e,0x74,0x69,0x61,0x6c,0x5f,0x39,0x5f,0x31,0x2f,0x63,0x6f,0x6e,0x76,0x31,0x64,0x5f,0x31,0x39,0x5f,0x31,0x2f,0x42,0x69,0x61,0x73,0x41,0x64,0x64,0x3b,0x0,0x0,0x0,0x3,0x0,0x0,0x0,0x1,0x0,0x0,0x0,0x40,0x0,0x0,0x0,0x10,0x0,0x0,0x0,0x62,0xf7,0xff,0xff,0x0,0x0,0x0,0x1,0x18,0x0,0x0,0x0,0x28,0x0,0x0,0x0,0x44,0x0,0x0,0x0,0x1c,0x0,0x0,0x0,0x0,0x0,0x0,0x9,0x48,0x1,0x0,0x0,0x4,0x0,0x0,0x0,0xff,0xff,0xff,0xff,0x1,0x0,0x0,0x0,0x40,0x0,0x0,0x0,0x10,0x0,0x0,0x0,0xc4,0xed,0xff,0xff,0x8,0x0,0x0,0x0,0x10,0x0,0x0,0x0,0x1,0x0,0x0,0x0,0x80,0xff,0xff,0xff,0xff,0xff,0xff,0xff,0x1,0x0,0x0,0x0,0xa,0xf9,0x4b,0x3d,0x8,0x1,0x0,0x0,0x73,0x65,0x71,0x75,0x65,0x6e,0x74,0x69,0x61,0x6c,0x5f,0x39,0x5f,0x31,0x2f,0x72,0x65,0x5f,0x6c,0x75,0x5f,0x32,0x38,0x5f,0x31,0x2f,0x52,0x65,0x6c,0x75,0x3b,0x73,0x65,0x71,0x75,0x65,0x6e,0x74,0x69,0x61,0x6c,0x5f,0x39,0x5f,0x31,0x2f,0x62,0x61,0x74,0x63,0x68,0x5f,0x6e,0x6f,0x72,0x6d,0x61,0x6c,0x69,0x7a,0x61,0x74,0x69,0x6f,0x6e,0x5f,0x33,0x38,0x5f,0x31,0x2f,0x62,0x61,0x74,0x63,0x68,0x6e,0x6f,0x72,0x6d,0x2f,0x61,0x64,0x64,0x5f,0x31,0x3b,0x73,0x65,0x71,0x75,0x65,0x6e,0x74,0x69,0x61,0x6c,0x5f,0x39,0x5f,0x31,0x2f,0x63,0x6f,0x6e,0x76,0x31,0x64,0x5f,0x31,0x39,0x5f,0x31,0x2f,0x63,0x6f,0x6e,0x76,0x6f,0x6c,0x75,0x74,0x69,0x6f,0x6e,0x2f,0x53,0x71,0x75,0x65,0x65,0x7a,0x65,0x3b,0x73,0x65,0x71,0x75,0x65,0x6e,0x74,0x69,0x61,0x6c,0x5f,0x39,0x5f,0x31,0x2f,0x62,0x61,0x74,0x63,0x68,0x5f,0x6e,0x6f,0x72,0x6d,0x61,0x6c,0x69,0x7a,0x61,0x74,0x69,0x6f,0x6e,0x5f,0x33,0x38,0x5f,0x31,0x2f,0x62,0x61,0x74,0x63,0x68,0x6e,0x6f,0x72,0x6d,0x2f,0x6d,0x75,0x6c,0x5f,0x31,0x3b,0x73,0x65,0x71,0x75,0x65,0x6e,0x74,0x69,0x61,0x6c,0x5f,0x39,0x5f,0x31,0x2f,0x63,0x6f,0x6e,0x76,0x31,0x64,0x5f,0x31,0x39,0x5f,0x31,0x2f,0x42,0x69,0x61,0x73,0x41,0x64,0x64,0x3b,0x3b,0x73,0x65,0x71,0x75,0x65,0x6e,0x74,0x69,0x61,0x6c,0x5f,0x39,0x5f,0x31,0x2f,0x63,0x6f,0x6e,0x76,0x31,0x64,0x5f,0x31,0x39,0x5f,0x31,0x2f,0x63,0x6f,0x6e,0x76,0x6f,0x6c,0x75,0x74,0x69,0x6f,0x6e,0x0,0x0,0x0,0x0,0x4,0x0,0x0,0x0,0x1,0x0,0x0,0x0,0x1,0x0,0x0,0x0,0x40,0x0,0x0,0x0,0x10,0x0,0x0,0x0,0xda,0xf8,0xff,0xff,0x0,0x0,0x0,0x1,0x18,0x0,0x0,0x0,0x28,0x0,0x0,0x0,0x48,0x0,0x0,0x0,0x1b,0x0,0x0,0x0,0x0,0x0,0x0,0x9,0x74,0x0,0x0,0x0,0x4,0x0,0x0,0x0,0xff,0xff,0xff,0xff,0x1,0x0,0x0,0x0,0x40,0x0,0x0,0x0,0x20,0x0,0x0,0x0,0x3c,0xef,0xff,0xff,0x8,0x0,0x0,0x0,0x14,0x0,0x0,0x0,0x1,0x0,0x0,0x0,0x80,0xff,0xff,0xff,0xff,0xff,0xff,0xff,0x0,0x0,0x0,0x0,0x1,0x0,0x0,0x0,0xea,0x3a,0x87,0x3d,0x31,0x0,0x0,0x0,0x73,0x65,0x71,0x75,0x65,0x6e,0x74,0x69,0x61,0x6c,0x5f,0x39,0x5f,0x31,0x2f,0x63,0x6f,0x6e,0x76,0x31,0x64,0x5f,0x31,0x39,0x5f,0x31,0x2f,0x63,0x6f,0x6e,0x76,0x6f,0x6c,0x75,0x74,0x69,0x6f,0x6e,0x2f,0x45,0x78,0x70,0x61,0x6e,0x64,0x44,0x69,0x6d,0x73,0x0,0x0,0x0,0x4,0x0,0x0,0x0,0x1,0x0,0x0,0x0,0x1,0x0,0x0,0x0,0x40,0x0,0x0,0x0,0x20,0x0,0x0,0x0,0x7e,0xf9,0xff,0xff,0x0,0x0,0x0,0x1,0x18,0x0,0x0,0x0,0x24,0x0,0x0,0x0,0x44,0x0,0x0,0x0,0x1a,0x0,0x0,0x0,0x0,0x0,0x0,0x9,0x70,0x0,0x0,0x0,0x3,0x0,0x0,0x0,0xff,0xff,0xff,0xff,0x40,0x0,0x0,0x0,0x20,0x0,0x0,0x0,0xdc,0xef,0xff,0xff,0x8,0x0,0x0,0x0,0x14,0x0,0x0,0x0,0x1,0x0,0x0,0x0,0x80,0xff,0xff,0xff,0xff,0xff,0xff,0xff,0x0,0x0,0x0,0x0,0x1,0x0,0x0,0x0,0xea,0x3a,0x87,0x3d,0x33,0x0,0x0,0x0,0x73,0x65,0x71,0x75,0x65,0x6e,0x74,0x69,0x61,0x6c,0x5f,0x39,0x5f,0x31,0x2f,0x6d,0x61,0x78,0x5f,0x70,0x6f,0x6f,0x6c,0x69,0x6e,0x67,0x31,0x64,0x5f,0x31,0x38,0x5f,0x31,0x2f,0x4d,0x61,0x78,0x50,0x6f,0x6f,0x6c,0x31,0x64,0x2f,0x53,0x71,0x75,0x65,0x65,0x7a,0x65,0x0,0x3,0x0,0x0,0x0,0x1,0x0,0x0,0x0,0x40,0x0,0x0,0x0,0x20,0x0,0x0,0x0,0x1a,0xfa,0xff,0xff,0x0,0x0,0x0,0x1,0x18,0x0,0x0,0x0,0x28,0x0,0x0,0x0,0x44,0x0,0x0,0x0,0x19,0x0,0x0,0x0,0x0,0x0,0x0,0x9,0x68,0x0,0x0,0x0,0x4,0x0,0x0,0x0,0xff,0xff,0xff,0xff,0x1,0x0,0x0,0x0,0x40,0x0,0x0,0x0,0x20,0x0,0x0,0x0,0x7c,0xf0,0xff,0xff,0x8,0x0,0x0,0x0,0x10,0x0,0x0,0x0,0x1,0x0,0x0,0x0,0x80,0xff,0xff,0xff,0xff,0xff,0xff,0xff,0x1,0x0,0x0,0x0,0xea,0x3a,0x87,0x3d,0x2b,0x0,0x0,0x0,0x73,0x65,0x71,0x75,0x65,0x6e,0x74,0x69,0x61,0x6c,0x5f,0x39,0x5f,0x31,0x2f,0x6d,0x61,0x78,0x5f,0x70,0x6f,0x6f,0x6c,0x69,0x6e,0x67,0x31,0x64,0x5f,0x31,0x38,0x5f,0x31,0x2f,0x4d,0x61,0x78,0x50,0x6f,0x6f,0x6c,0x31,0x64,0x0,0x4,0x0,0x0,0x0,0x1,0x0,0x0,0x0,0x1,0x0,0x0,0x0,0x40,0x0,0x0,0x0,0x20,0x0,0x0,0x0,0xb2,0xfa,0xff,0xff,0x0,0x0,0x0,0x1,0x18,0x0,0x0,0x0,0x28,0x0,0x0,0x0,0x44,0x0,0x0,0x0,0x18,0x0,0x0,0x0,0x0,0x0,0x0,0x9,0x74,0x0,0x0,0x0,0x4,0x0,0x0,0x0,0xff,0xff,0xff,0xff,0x1,0x0,0x0,0x0,0x80,0x0,0x0,0x0,0x20,0x0,0x0,0x0,0x14,0xf1,0xff,0xff,0x8,0x0,0x0,0x0,0x10,0x0,0x0,0x0,0x1,0x0,0x0,0x0,0x80,0xff,0xff,0xff,0xff,0xff,0xff,0xff,0x1,0x0,0x0,0x0,0xea,0x3a,0x87,0x3d,0x36,0x0,0x0,0x0,0x73,0x65,0x71,0x75,0x65,0x6e,0x74,0x69,0x61,0x6c,0x5f,0x39,0x5f,0x31,0x2f,0x6d,0x61,0x78,0x5f,0x70,0x6f,0x6f,0x6c,0x69,0x6e,0x67,0x31,0x64,0x5f,0x31,0x38,0x5f,0x31,0x2f,0x4d,0x61,0x78,0x50,0x6f,0x6f,0x6c,0x31,0x64,0x2f,0x45,0x78,0x70,0x61,0x6e,0x64,0x44,0x69,0x6d,0x73,0x0,0x0,0x4,0x0,0x0,0x0,0x1,0x0,0x0,0x0,0x1,0x0,0x0,0x0,0x80,0x0,0x0,0x0,0x20,0x0,0x0,0x0,0x56,0xfb,0xff,0xff,0x0,0x0,0x0,0x1,0x18,0x0,0x0,0x0,0x24,0x0,0x0,0x0,0x44,0x0,0x0,0x0,0x17,0x0,0x0,0x0,0x0,0x0,0x0,0x9,0x20,0x1,0x0,0x0,0x3,0x0,0x0,0x0,0xff,0xff,0xff,0xff,0x80,0x0,0x0,0x0,0x20,0x0,0x0,0x0,0xb4,0xf1,0xff,0xff,0x8,0x0,0x0,0x0,0x14,0x0,0x0,0x0,0x1,0x0,0x0,0x0,0x80,0xff,0xff,0xff,0xff,0xff,0xff,0xff,0x0,0x0,0x0,0x0,0x1,0x0,0x0,0x0,0xea,0x3a,0x87,0x3d,0xe1,0x0,0x0,0x0,0x73,0x65,0x71,0x75,0x65,0x6e,0x74,0x69,0x61,0x6c,0x5f,0x39,0x5f,0x31,0x2f,0x72,0x65,0x5f,0x6c,0x75,0x5f,0x32,0x37,0x5f,0x31,0x2f,0x52,0x65,0x6c,0x75,0x3b,0x73,0x65,0x71,0x75,0x65,0x6e,0x74,0x69,0x61,0x6c,0x5f,0x39,0x5f,0x31,0x2f,0x62,0x61,0x74,0x63,0x68,0x5f,0x6e,0x6f,0x72,0x6d,0x61,0x6c,0x69,0x7a,0x61,0x74,0x69,0x6f,0x6e,0x5f,0x33,0x37,0x5f,0x31,0x2f,0x62,0x61,0x74,0x63,0x68,0x6e,0x6f,0x72,0x6d,0x2f,0x61,0x64,0x64,0x5f,0x31,0x3b,0x73,0x65,0x71,0x75,0x65,0x6e,0x74,0x69,0x61,0x6c,0x5f,0x39,0x5f,0x31,0x2f,0x63,0x6f,0x6e,0x76,0x31,0x64,0x5f,0x31,0x38,0x5f,0x31,0x2f,0x63,0x6f,0x6e,0x76,0x6f,0x6c,0x75,0x74,0x69,0x6f,0x6e,0x2f,0x53,0x71,0x75,0x65,0x65,0x7a,0x65,0x3b,0x73,0x65,0x71,0x75,0x65,0x6e,0x74,0x69,0x61,0x6c,0x5f,0x39,0x5f,0x31,0x2f,0x62,0x61,0x74,0x63,0x68,0x5f,0x6e,0x6f,0x72,0x6d,0x61,0x6c,0x69,0x7a,0x61,0x74,0x69,0x6f,0x6e,0x5f,0x33,0x37,0x5f,0x31,0x2f,0x62,0x61,0x74,0x63,0x68,0x6e,0x6f,0x72,0x6d,0x2f,0x6d,0x75,0x6c,0x5f,0x31,0x3b,0x73,0x65,0x71,0x75,0x65,0x6e,0x74,0x69,0x61,0x6c,0x5f,0x39,0x5f,0x31,0x2f,0x63,0x6f,0x6e,0x76,0x31,0x64,0x5f,0x31,0x38,0x5f,0x31,0x2f,0x42,0x69,0x61,0x73,0x41,0x64,0x64,0x3b,0x0,0x0,0x0,0x3,0x0,0x0,0x0,0x1,0x0,0x0,0x0,0x80,0x0,0x0,0x0,0x20,0x0,0x0,0x0,0xa2,0xfc,0xff,0xff,0x0,0x0,0x0,0x1,0x18,0x0,0x0,0x0,0x28,0x0,0x0,0x0,0x44,0x0,0x0,0x0,0x16,0x0,0x0,0x0,0x0,0x0,0x0,0x9,0x48,0x1,0x0,0x0,0x4,0x0,0x0,0x0,0xff,0xff,0xff,0xff,0x1,0x0,0x0,0x0,0x80,0x0,0x0,0x0,0x20,0x0,0x0,0x0,0x4,0xf3,0xff,0xff,0x8,0x0,0x0,0x0,0x10,0x0,0x0,0x0,0x1,0x0,0x0,0x0,0x80,0xff,0xff,0xff,0xff,0xff,0xff,0xff,0x1,0x0,0x0,0x0,0xea,0x3a,0x87,0x3d,0x8,0x1,0x0,0x0,0x73,0x65,0x71,0x75,0x65,0x6e,0x74,0x69,0x61,0x6c,0x5f,0x39,0x5f,0x31,0x2f,0x72,0x65,0x5f,0x6c,0x75,0x5f,0x32,0x37,0x5f,0x31,0x2f,0x52,0x65,0x6c,0x75,0x3b,0x73,0x65,0x71,0x75,0x65,0x6e,0x74,0x69,0x61,0x6c,0x5f,0x39,0x5f,0x31,0x2f,0x62,0x61,0x74,0x63,0x68,0x5f,0x6e,0x6f,0x72,0x6d,0x61,0x6c,0x69,0x7a,0x61,0x74,0x69,0x6f,0x6e,0x5f,0x33,0x37,0x5f,0x31,0x2f,0x62,0x61,0x74,0x63,0x68,0x6e,0x6f,0x72,0x6d,0x2f,0x61,0x64,0x64,0x5f,0x31,0x3b,0x73,0x65,0x71,0x75,0x65,0x6e,0x74,0x69,0x61,0x6c,0x5f,0x39,0x5f,0x31,0x2f,0x63,0x6f,0x6e,0x76,0x31,0x64,0x5f,0x31,0x38,0x5f,0x31,0x2f,0x63,0x6f,0x6e,0x76,0x6f,0x6c,0x75,0x74,0x69,0x6f,0x6e,0x2f,0x53,0x71,0x75,0x65,0x65,0x7a,0x65,0x3b,0x73,0x65,0x71,0x75,0x65,0x6e,0x74,0x69,0x61,0x6c,0x5f,0x39,0x5f,0x31,0x2f,0x62,0x61,0x74,0x63,0x68,0x5f,0x6e,0x6f,0x72,0x6d,0x61,0x6c,0x69,0x7a,0x61,0x74,0x69,0x6f,0x6e,0x5f,0x33,0x37,0x5f,0x31,0x2f,0x62,0x61,0x74,0x63,0x68,0x6e,0x6f,0x72,0x6d,0x2f,0x6d,0x75,0x6c,0x5f,0x31,0x3b,0x73,0x65,0x71,0x75,0x65,0x6e,0x74,0x69,0x61,0x6c,0x5f,0x39,0x5f,0x31,0x2f,0x63,0x6f,0x6e,0x76,0x31,0x64,0x5f,0x31,0x38,0x5f,0x31,0x2f,0x42,0x69,0x61,0x73,0x41,0x64,0x64,0x3b,0x3b,0x73,0x65,0x71,0x75,0x65,0x6e,0x74,0x69,0x61,0x6c,0x5f,0x39,0x5f,0x31,0x2f,0x63,0x6f,0x6e,0x76,0x31,0x64,0x5f,0x31,0x38,0x5f,0x31,0x2f,0x63,0x6f,0x6e,0x76,0x6f,0x6c,0x75,0x74,0x69,0x6f,0x6e,0x0,0x0,0x0,0x0,0x4,0x0,0x0,0x0,0x1,0x0,0x0,0x0,0x1,0x0,0x0,0x0,0x80,0x0,0x0,0x0,0x20,0x0,0x0,0x0,0x1a,0xfe,0xff,0xff,0x0,0x0,0x0,0x1,0x18,0x0,0x0,0x0,0x28,0x0,0x0,0x0,0x48,0x0,0x0,0x0,0x15,0x0,0x0,0x0,0x0,0x0,0x0,0x9,0x74,0x0,0x0,0x0,0x4,0x0,0x0,0x0,0xff,0xff,0xff,0xff,0x1,0x0,0x0,0x0,0x80,0x0,0x0,0x0,0x9,0x0,0x0,0x0,0x7c,0xf4,0xff,0xff,0x8,0x0,0x0,0x0,0x14,0x0,0x0,0x0,0x1,0x0,0x0,0x0,0xf4,0xff,0xff,0xff,0xff,0xff,0xff,0xff,0x0,0x0,0x0,0x0,0x1,0x0,0x0,0x0,0x3,0x7c,0x17,0x3e,0x31,0x0,0x0,0x0,0x73,0x65,0x71,0x75,0x65,0x6e,0x74,0x69,0x61,0x6c,0x5f,0x39,0x5f,0x31,0x2f,0x63,0x6f,0x6e,0x76,0x31,0x64,0x5f,0x31,0x38,0x5f,0x31,0x2f,0x63,0x6f,0x6e,0x76,0x6f,0x6c,0x75,0x74,0x69,0x6f,0x6e,0x2f,0x45,0x78,0x70,0x61,0x6e,0x64,0x44,0x69,0x6d,0x73,0x0,0x0,0x0,0x4,0x0,0x0,0x0,0x1,0x0,0x0,0x0,0x1,0x0,0x0,0x0,0x80,0x0,0x0,0x0,0x9,0x0,0x0,0x0,0xbe,0xfe,0xff,0xff,0x0,0x0,0x0,0x1,0x18,0x0,0x0,0x0,0x24,0x0,0x0,0x0,0x44,0x0,0x0,0x0,0x14,0x0,0x0,0x0,0x0,0x0,0x0,0x9,0x74,0x0,0x0,0x0,0x3,0x0,0x0,0x0,0xff,0xff,0xff,0xff,0x80,0x0,0x0,0x0,0x9,0x0,0x0,0x0,0x1c,0xf5,0xff,0xff,0x8,0x0,0x0,0x0,0x14,0x0,0x0,0x0,0x1,0x0,0x0,0x0,0xf4,0xff,0xff,0xff,0xff,0xff,0xff,0xff,0x0,0x0,0x0,0x0,0x1,0x0,0x0,0x0,0x3,0x7c,0x17,0x3e,0x37,0x0,0x0,0x0,0x73,0x65,0x71,0x75,0x65,0x6e,0x74,0x69,0x61,0x6c,0x5f,0x39,0x5f,0x31,0x2f,0x62,0x61,0x74,0x63,0x68,0x5f,0x6e,0x6f,0x72,0x6d,0x61,0x6c,0x69,0x7a,0x61,0x74,0x69,0x6f,0x6e,0x5f,0x33,0x36,0x5f,0x31,0x2f,0x62,0x61,0x74,0x63,0x68,0x6e,0x6f,0x72,0x6d,0x2f,0x61,0x64,0x64,0x5f,0x31,0x0,0x3,0x0,0x0,0x0,0x1,0x0,0x0,0x0,0x80,0x0,0x0,0x0,0x9,0x0,0x0,0x0,0x5e,0xff,0xff,0xff,0x0,0x0,0x0,0x1,0x18,0x0,0x0,0x0,0x24,0x0,0x0,0x0,0x44,0x0,0x0,0x0,0x13,0x0,0x0,0x0,0x0,0x0,0x0,0x9,0x74,0x0,0x0,0x0,0x3,0x0,0x0,0x0,0xff,0xff,0xff,0xff,0x80,0x0,0x0,0x0,0x9,0x0,0x0,0x0,0xbc,0xf5,0xff,0xff,0x8,0x0,0x0,0x0,0x14,0x0,0x0,0x0,0x1,0x0,0x0,0x0,0xdf,0xff,0xff,0xff,0xff,0xff,0xff,0xff,0x0,0x0,0x0,0x0,0x1,0x0,0x0,0x0,0xba,0x96,0x37,0x3e,0x37,0x0,0x0,0x0,0x73,0x65,0x71,0x75,0x65,0x6e,0x74,0x69,0x61,0x6c,0x5f,0x39,0x5f,0x31,0x2f,0x62,0x61,0x74,0x63,0x68,0x5f,0x6e,0x6f,0x72,0x6d,0x61,0x6c,0x69,0x7a,0x61,0x74,0x69,0x6f,0x6e,0x5f,0x33,0x36,0x5f,0x31,0x2f,0x62,0x61,0x74,0x63,0x68,0x6e,0x6f,0x72,0x6d,0x2f,0x6d,0x75,0x6c,0x5f,0x31,0x0,0x3,0x0,0x0,0x0,0x1,0x0,0x0,0x0,0x80,0x0,0x0,0x0,0x9,0x0,0x0,0x0,0x0,0x0,0x16,0x0,0x20,0x0,0x1c,0x0,0x1b,0x0,0x14,0x0,0x10,0x0,0xc,0x0,0x0,0x0,0x0,0x0,0x8,0x0,0x7,0x0,0x16,0x0,0x0,0x0,0x0,0x0,0x0,0x1,0x18,0x0,0x0,0x0,0x24,0x0,0x0,0x0,0x40,0x0,0x0,0x0,0x12,0x0,0x0,0x0,0x0,0x0,0x0,0x9,0x48,0x0,0x0,0x0,0x3,0x0,0x0,0x0,0xff,0xff,0xff,0xff,0x80,0x0,0x0,0x0,0x9,0x0,0x0,0x0,0x74,0xf6,0xff,0xff,0x8,0x0,0x0,0x0,0x10,0x0,0x0,0x0,0x1,0x0,0x0,0x0,0xfe,0xff,0xff,0xff,0xff,0xff,0xff,0xff,0x1,0x0,0x0,0x0,0xeb,0xea,0x1e,0x42,0xc,0x0,0x0,0x0,0x74,0x66,0x6c,0x2e,0x71,0x75,0x61,0x6e,0x74,0x69,0x7a,0x65,0x0,0x0,0x0,0x0,0x3,0x0,0x0,0x0,0x1,0x0,0x0,0x0,0x80,0x0,0x0,0x0,0x9,0x0,0x0,0x0,0x42,0xf5,0xff,0xff,0x0,0x0,0x0,0x1,0x14,0x0,0x0,0x0,0x34,0x0,0x0,0x0,0x11,0x0,0x0,0x0,0x0,0x0,0x0,0x9,0x40,0x0,0x0,0x0,0xd4,0xf6,0xff,0xff,0x8,0x0,0x0,0x0,0x14,0x0,0x0,0x0,0x1,0x0,0x0,0x0,0x80,0xff,0xff,0xff,0xff,0xff,0xff,0xff,0x0,0x0,0x0,0x0,0x1,0x0,0x0,0x0,0x45,0x63,0x1,0x38,0x12,0x0,0x0,0x0,0x74,0x66,0x6c,0x2e,0x70,0x73,0x65,0x75,0x64,0x6f,0x5f,0x71,0x63,0x6f,0x6e,0x73,0x74,0x39,0x0,0x0,0x1,0x0,0x0,0x0,0x9,0x0,0x0,0x0,0xa2,0xf5,0xff,0xff,0x0,0x0,0x0,0x1,0x14,0x0,0x0,0x0,0x34,0x0,0x0,0x0,0x10,0x0,0x0,0x0,0x0,0x0,0x0,0x9,0x40,0x0,0x0,0x0,0x34,0xf7,0xff,0xff,0x8,0x0,0x0,0x0,0x14,0x0,0x0,0x0,0x1,0x0,0x0,0x0,0x7f,0x0,0x0,0x0,0x0,0x0,0x0,0x0,0x0,0x0,0x0,0x0,0x1,0x0,0x0,0x0,0xda,0x6a,0x0,0x3d,0x12,0x0,0x0,0x0,0x74,0x66,0x6c,0x2e,0x70,0x73,0x65,0x75,0x64,0x6f,0x5f,0x71,0x63,0x6f,0x6e,0x73,0x74,0x38,0x0,0x0,0x1,0x0,0x0,0x0,0x9,0x0,0x0,0x0,0x2,0xf6,0xff,0xff,0x0,0x0,0x0,0x1,0x14,0x0,0x0,0x0,0xa8,0x1,0x0,0x0,0xf,0x0,0x0,0x0,0x0,0x0,0x0,0x9,0xb4,0x1,0x0,0x0,0x94,0xf7,0xff,0xff,0x8,0x0,0x0,0x0,0xc,0x1,0x0,0x0,0x20,0x0,0x0,0x0,0x0,0x0,0x0,0x0,0x0,0x0,0x0,0x0,0x0,0x0,0x0,0x0,0x0,0x0,0x0,0x0,0x0,0x0,0x0,0x0,0x0,0x0,0x0,0x0,0x0,0x0,0x0,0x0,0x0,0x0,0x0,0x0,0x0,0x0,0x0,0x0,0x0,0x0,0x0,0x0,0x0,0x0,0x0,0x0,0x0,0x0,0x0,0x0,0x0,0x0,0x0,0x0,0x0,0x0,0x0,0x0,0x0,0x0,0x0,0x0,0x0,0x0,0x0,0x0,0x0,0x0,0x0,0x0,0x0,0x0,0x0,0x0,0x0,0x0,0x0,0x0,0x0,0x0,0x0,0x0,0x0,0x0,0x0,0x0,0x0,0x0,0x0,0x0,0x0,0x0,0x0,0x0,0x0,0x0,0x0,0x0,0x0,0x0,0x0,0x0,0x0,0x0,0x0,0x0,0x0,0x0,0x0,0x0,0x0,0x0,0x0,0x0,0x0,0x0,0x0,0x0,0x0,0x0,0x0,0x0,0x0,0x0,0x0,0x0,0x0,0x0,0x0,0x0,0x0,0x0,0x0,0x0,0x0,0x0,0x0,0x0,0x0,0x0,0x0,0x0,0x0,0x0,0x0,0x0,0x0,0x0,0x0,0x0,0x0,0x0,0x0,0x0,0x0,0x0,0x0,0x0,0x0,0x0,0x0,0x0,0x0,0x0,0x0,0x0,0x0,0x0,0x0,0x0,0x0,0x0,0x0,0x0,0x0,0x0,0x0,0x0,0x0,0x0,0x0,0x0,0x0,0x0,0x0,0x0,0x0,0x0,0x0,0x0,0x0,0x0,0x0,0x0,0x0,0x0,0x0,0x0,0x0,0x0,0x0,0x0,0x0,0x0,0x0,0x0,0x0,0x0,0x0,0x0,0x0,0x0,0x0,0x0,0x0,0x0,0x0,0x0,0x0,0x0,0x0,0x0,0x0,0x0,0x0,0x0,0x0,0x0,0x0,0x0,0x0,0x0,0x0,0x0,0x0,0x0,0x0,0x0,0x0,0x0,0x0,0x0,0x0,0x0,0x0,0x0,0x0,0x0,0x0,0x0,0x0,0x0,0x0,0x0,0x0,0x0,0x0,0x0,0x0,0x0,0x0,0x0,0x20,0x0,0x0,0x0,0xd0,0xe6,0x8c,0x3b,0x3e,0xc4,0x7d,0x3b,0x81,0xa9,0x58,0x3b,0x4d,0xca,0x78,0x3b,0x49,0x51,0x74,0x3b,0xfa,0x58,0x2f,0x3b,0x7c,0x22,0x6d,0x3b,0x1b,0x6,0x9c,0x3b,0x48,0xe8,0x59,0x3b,0xdd,0x4b,0x46,0x3b,0x3f,0xa,0x82,0x3b,0xd4,0xb,0x3c,0x3b,0x29,0x47,0x49,0x3b,0x9f,0xfd,0x38,0x3b,0xda,0x79,0x23,0x3b,0x9a,0x69,0x42,0x3b,0x82,0x4,0x5a,0x3b,0xb4,0xfb,0x40,0x3b,0x5d,0x7f,0x30,0x3b,0x6f,0x2e,0x3c,0x3b,0x12,0x93,0x81,0x3b,0xf2,0x1e,0x9,0x3b,0x96,0x8e,0x5e,0x3b,0xbf,0xda,0xe4,0x3a,0x3a,0x29,0x8b,0x3b,0x8f,0xd3,0x1f,0x3b,0x9,0xec,0x50,0x3b,0x2b,0x8,0x36,0x3b,0x4e,0x3e,0x35,0x3b,0x69,0x43,0x6f,0x3b,0xba,0x56,0x62,0x3b,0x46,0xe,0x37,0x3b,0x12,0x0,0x0,0x0,0x74,0x66,0x6c,0x2e,0x70,0x73,0x65,0x75,0x64,0x6f,0x5f,0x71,0x63,0x6f,0x6e,0x73,0x74,0x37,0x0,0x0,0x4,0x0,0x0,0x0,0x20,0x0,0x0,0x0,0x1,0x0,0x0,0x0,0x3,0x0,0x0,0x0,0x9,0x0,0x0,0x0,0xe2,0xf7,0xff,0xff,0x0,0x0,0x0,0x1,0x14,0x0,0x0,0x0,0xa4,0x1,0x0,0x0,0xe,0x0,0x0,0x0,0x0,0x0,0x0,0x2,0xb0,0x1,0x0,0x0,0x74,0xf9,0xff,0xff,0x8,0x0,0x0,0x0,0x8,0x1,0x0,0x0,0x20,0x0,0x0,0x0,0x0,0x0,0x0,0x0,0x0,0x0,0x0,0x0,0x0,0x0,0x0,0x0,0x0,0x0,0x0,0x0,0x0,0x0,0x0,0x0,0x0,0x0,0x0,0x0,0x0,0x0,0x0,0x0,0x0,0x0,0x0,0x0,0x0,0x0,0x0,0x0,0x0,0x0,0x0,0x0,0x0,0x0,0x0,0x0,0x0,0x0,0x0,0x0,0x0,0x0,0x0,0x0,0x0,0x0,0x0,0x0,0x0,0x0,0x0,0x0,0x0,0x0,0x0,0x0,0x0,0x0,0x0,0x0,0x0,0x0,0x0,0x0,0x0,0x0,0x0,0x0,0x0,0x0,0x0,0x0,0x0,0x0,0x0,0x0,0x0,0x0,0x0,0x0,0x0,0x0,0x0,0x0,0x0,0x0,0x0,0x0,0x0,0x0,0x0,0x0,0x0,0x0,0x0,0x0,0x0,0x0,0x0,0x0,0x0,0x0,0x0,0x0,0x0,0x0,0x0,0x0,0x0,0x0,0x0,0x0,0x0,0x0,0x0,0x0,0x0,0x0,0x0,0x0,0x0,0x0,0x0,0x0,0x0,0x0,0x0,0x0,0x0,0x0,0x0,0x0,0x0,0x0,0x0,0x0,0x0,0x0,0x0,0x0,0x0,0x0,0x0,0x0,0x0,0x0,0x0,0x0,0x0,0x0,0x0,0x0,0x0,0x0,0x0,0x0,0x0,0x0,0x0,0x0,0x0,0x0,0x0,0x0,0x0,0x0,0x0,0x0,0x0,0x0,0x0,0x0,0x0,0x0,0x0,0x0,0x0,0x0,0x0,0x0,0x0,0x0,0x0,0x0,0x0,0x0,0x0,0x0,0x0,0x0,0x0,0x0,0x0,0x0,0x0,0x0,0x0,0x0,0x0,0x0,0x0,0x0,0x0,0x0,0x0,0x0,0x0,0x0,0x0,0x0,0x0,0x0,0x0,0x0,0x0,0x0,0x0,0x0,0x0,0x0,0x0,0x0,0x0,0x0,0x0,0x0,0x0,0x0,0x0,0x0,0x0,0x0,0x0,0x0,0x0,0x0,0x0,0x0,0x0,0x0,0x0,0x0,0x0,0x0,0x0,0x0,0x0,0x0,0x20,0x0,0x0,0x0,0xcc,0xc0,0x26,0x3a,0xaf,0x29,0x16,0x3a,0xf0,0x34,0x0,0x3a,0xd8,0x37,0x13,0x3a,0x4c,0x92,0x10,0x3a,0xd9,0x84,0xcf,0x39,0x37,0x52,0xc,0x3a,0x5d,0xa6,0x38,0x3a,0x92,0xf1,0x0,0x3a,0x9d,0xad,0xea,0x39,0x13,0xe6,0x19,0x3a,0x24,0x8c,0xde,0x39,0xf4,0x34,0xee,0x39,0x6c,0xee,0xda,0x39,0x21,0x78,0xc1,0x39,0xef,0x14,0xe6,0x39,0x45,0x2,0x1,0x3a,0xe7,0x63,0xe4,0x39,0x3f,0xe1,0xd0,0x39,0x18,0xb5,0xde,0x39,0x9,0x59,0x19,0x3a,0x5b,0x47,0xa2,0x39,0xea,0xb1,0x3,0x3a,0xe3,0x6b,0x87,0x39,0x76,0xb1,0x24,0x3a,0x6b,0x26,0xbd,0x39,0xdc,0x40,0xf7,0x39,0xff,0x6d,0xd7,0x39,0x19,0x7f,0xd6,0x39,0xaa,0x94,0xd,0x3a,0xcc,0xee,0x5,0x3a,0x31,0xa4,0xd8,0x39,0x12,0x0,0x0,0x0,0x74,0x66,0x6c,0x2e,0x70,0x73,0x65,0x75,0x64,0x6f,0x5f,0x71,0x63,0x6f,0x6e,0x73,0x74,0x36,0x0,0x0,0x1,0x0,0x0,0x0,0x20,0x0,0x0,0x0,0xb2,0xf9,0xff,0xff,0x0,0x0,0x0,0x1,0x14,0x0,0x0,0x0,0xe8,0x0,0x0,0x0,0xd,0x0,0x0,0x0,0x0,0x0,0x0,0x9,0xf4,0x0,0x0,0x0,0x44,0xfb,0xff,0xff,0x8,0x0,0x0,0x0,0x8c,0x0,0x0,0x0,0x10,0x0,0x0,0x0,0x0,0x0,0x0,0x0,0x0,0x0,0x0,0x0,0x0,0x0,0x0,0x0,0x0,0x0,0x0,0x0,0x0,0x0,0x0,0x0,0x0,0x0,0x0,0x0,0x0,0x0,0x0,0x0,0x0,0x0,0x0,0x0,0x0,0x0,0x0,0x0,0x0,0x0,0x0,0x0,0x0,0x0,0x0,0x0,0x0,0x0,0x0,0x0,0x0,0x0,0x0,0x0,0x0,0x0,0x0,0x0,0x0,0x0,0x0,0x0,0x0,0x0,0x0,0x0,0x0,0x0,0x0,0x0,0x0,0x0,0x0,0x0,0x0,0x0,0x0,0x0,0x0,0x0,0x0,0x0,0x0,0x0,0x0,0x0,0x0,0x0,0x0,0x0,0x0,0x0,0x0,0x0,0x0,0x0,0x0,0x0,0x0,0x0,0x0,0x0,0x0,0x0,0x0,0x0,0x0,0x0,0x0,0x0,0x0,0x0,0x0,0x0,0x0,0x0,0x0,0x0,0x0,0x0,0x0,0x0,0x0,0x0,0x0,0x0,0x0,0x0,0x0,0x0,0x0,0x0,0x0,0x0,0x10,0x0,0x0,0x0,0xeb,0x46,0xf7,0x3a,0xd5,0x7,0xc3,0x3a,0x95,0xf5,0x34,0x3b,0xbe,0x5f,0x1a,0x3b,0x5f,0xea,0xf7,0x3a,0x49,0x41,0xbe,0x3a,0x44,0x52,0x36,0x3b,0x1a,0x74,0x12,0x3b,0x97,0x86,0x13,0x3b,0xf2,0x8,0x2e,0x3b,0xf4,0x9c,0x98,0x3a,0xf5,0xf7,0x2f,0x3b,0x9e,0xd4,0xde,0x3a,0xfd,0xb7,0xcd,0x3a,0xaf,0x64,0xe5,0x3a,0xb6,0x16,0x38,0x3b,0x12,0x0,0x0,0x0,0x74,0x66,0x6c,0x2e,0x70,0x73,0x65,0x75,0x64,0x6f,0x5f,0x71,0x63,0x6f,0x6e,0x73,0x74,0x35,0x0,0x0,0x4,0x0,0x0,0x0,0x10,0x0,0x0,0x0,0x1,0x0,0x0,0x0,0x3,0x0,0x0,0x0,0x20,0x0,0x0,0x0,0xd2,0xfa,0xff,0xff,0x0,0x0,0x0,0x1,0x14,0x0,0x0,0x0,0xe4,0x0,0x0,0x0,0xc,0x0,0x0,0x0,0x0,0x0,0x0,0x2,0xf0,0x0,0x0,0x0,0x64,0xfc,0xff,0xff,0x8,0x0,0x0,0x0,0x88,0x0,0x0,0x0,0x10,0x0,0x0,0x0,0x0,0x0,0x0,0x0,0x0,0x0,0x0,0x0,0x0,0x0,0x0,0x0,0x0,0x0,0x0,0x0,0x0,0x0,0x0,0x0,0x0,0x0,0x0,0x0,0x0,0x0,0x0,0x0,0x0,0x0,0x0,0x0,0x0,0x0,0x0,0x0,0x0,0x0,0x0,0x0,0x0,0x0,0x0,0x0,0x0,0x0,0x0,0x0,0x0,0x0,0x0,0x0,0x0,0x0,0x0,0x0,0x0,0x0,0x0,0x0,0x0,0x0,0x0,0x0,0x0,0x0,0x0,0x0,0x0,0x0,0x0,0x0,0x0,0x0,0x0,0x0,0x0,0x0,0x0,0x0,0x0,0x0,0x0,0x0,0x0,0x0,0x0,0x0,0x0,0x0,0x0,0x0,0x0,0x0,0x0,0x0,0x0,0x0,0x0,0x0,0x0,0x0,0x0,0x0,0x0,0x0,0x0,0x0,0x0,0x0,0x0,0x0,0x0,0x0,0x0,0x0,0x0,0x0,0x0,0x0,0x0,0x0,0x0,0x0,0x0,0x0,0x0,0x0,0x10,0x0,0x0,0x0,0x4e,0x9f,0x2,0x39,0x7,0xc,0xce,0x38,0x4d,0x2e,0x3f,0x39,0x8,0x18,0x23,0x39,0xa6,0xf5,0x2,0x39,0x6c,0x0,0xc9,0x38,0xae,0x9e,0x40,0x39,0xdc,0xb9,0x1a,0x39,0xda,0xdb,0x1b,0x39,0x89,0xdd,0x37,0x39,0xc7,0x3b,0xa1,0x38,0x82,0xe8,0x39,0x39,0xce,0x6a,0xeb,0x38,0xbc,0x56,0xd9,0x38,0xc6,0x59,0xf2,0x38,0xaf,0x7c,0x42,0x39,0x12,0x0,0x0,0x0,0x74,0x66,0x6c,0x2e,0x70,0x73,0x65,0x75,0x64,0x6f,0x5f,0x71,0x63,0x6f,0x6e,0x73,0x74,0x34,0x0,0x0,0x1,0x0,0x0,0x0,0x10,0x0,0x0,0x0,0xe2,0xfb,0xff,0xff,0x0,0x0,0x0,0x1,0x14,0x0,0x0,0x0,0xe8,0x0,0x0,0x0,0xb,0x0,0x0,0x0,0x0,0x0,0x0,0x9,0xf4,0x0,0x0,0x0,0x74,0xfd,0xff,0xff,0x8,0x0,0x0,0x0,0x8c,0x0,0x0,0x0,0x10,0x0,0x0,0x0,0x0,0x0,0x0,0x0,0x0,0x0,0x0,0x0,0x0,0x0,0x0,0x0,0x0,0x0,0x0,0x0,0x0,0x0,0x0,0x0,0x0,0x0,0x0,0x0,0x0,0x0,0x0,0x0,0x0,0x0,0x0,0x0,0x0,0x0,0x0,0x0,0x0,0x0,0x0,0x0,0x0,0x0,0x0,0x0,0x0,0x0,0x0,0x0,0x0,0x0,0x0,0x0,0x0,0x0,0x0,0x0,0x0,0x0,0x0,0x0,0x0,0x0,0x0,0x0,0x0,0x0,0x0,0x0,0x0,0x0,0x0,0x0,0x0,0x0,0x0,0x0,0x0,0x0,0x0,0x0,0x0,0x0,0x0,0x0,0x0,0x0,0x0,0x0,0x0,0x0,0x0,0x0,0x0,0x0,0x0,0x0,0x0,0x0,0x0,0x0,0x0,0x0,0x0,0x0,0x0,0x0,0x0,0x0,0x0,0x0,0x0,0x0,0x0,0x0,0x0,0x0,0x0,0x0,0x0,0x0,0x0,0x0,0x0,0x0,0x0,0x0,0x0,0x0,0x0,0x0,0x0,0x0,0x10,0x0,0x0,0x0,0x68,0x4b,0x8,0x3c,0x8f,0x61,0x5f,0x3c,0x4c,0x9c,0x6e,0x3c,0x98,0x45,0x22,0x3c,0x46,0xc2,0x70,0x3c,0x9b,0x2e,0x83,0x3c,0xd9,0xe8,0x22,0x3c,0x50,0x23,0x6b,0x3c,0xf0,0x9d,0x44,0x3c,0x57,0xca,0x95,0x3c,0xc9,0x71,0xa,0x3c,0x94,0x23,0x10,0x3c,0x95,0x8f,0x9c,0x3c,0x58,0x85,0x7d,0x3c,0x19,0x14,0xa8,0x3c,0xd3,0x96,0x8a,0x3c,0x12,0x0,0x0,0x0,0x74,0x66,0x6c,0x2e,0x70,0x73,0x65,0x75,0x64,0x6f,0x5f,0x71,0x63,0x6f,0x6e,0x73,0x74,0x33,0x0,0x0,0x2,0x0,0x0,0x0,0x10,0x0,0x0,0x0,0x10,0x0,0x0,0x0,0xfa,0xfc,0xff,0xff,0x0,0x0,0x0,0x1,0x14,0x0,0x0,0x0,0xe4,0x0,0x0,0x0,0xa,0x0,0x0,0x0,0x0,0x0,0x0,0x2,0xf0,0x0,0x0,0x0,0x8c,0xfe,0xff,0xff,0x8,0x0,0x0,0x0,0x88,0x0,0x0,0x0,0x10,0x0,0x0,0x0,0x0,0x0,0x0,0x0,0x0,0x0,0x0,0x0,0x0,0x0,0x0,0x0,0x0,0x0,0x0,0x0,0x0,0x0,0x0,0x0,0x0,0x0,0x0,0x0,0x0,0x0,0x0,0x0,0x0,0x0,0x0,0x0,0x0,0x0,0x0,0x0,0x0,0x0,0x0,0x0,0x0,0x0,0x0,0x0,0x0,0x0,0x0,0x0,0x0,0x0,0x0,0x0,0x0,0x0,0x0,0x0,0x0,0x0,0x0,0x0,0x0,0x0,0x0,0x0,0x0,0x0,0x0,0x0,0x0,0x0,0x0,0x0,0x0,0x0,0x0,0x0,0x0,0x0,0x0,0x0,0x0,0x0,0x0,0x0,0x0,0x0,0x0,0x0,0x0,0x0,0x0,0x0,0x0,0x0,0x0,0x0,0x0,0x0,0x0,0x0,0x0,0x0,0x0,0x0,0x0,0x0,0x0,0x0,0x0,0x0,0x0,0x0,0x0,0x0,0x0,0x0,0x0,0x0,0x0,0x0,0x0,0x0,0x0,0x0,0x0,0x0,0x0,0x0,0x10,0x0,0x0,0x0,0x97,0xcd,0xac,0x38,0xc8,0x9b,0xd,0x39,0x52,0x43,0x17,0x39,0x21,0xbd,0xcd,0x38,0xf8,0x9f,0x18,0x39,0x35,0x52,0x26,0x39,0x1d,0x8c,0xce,0x38,0xc3,0xf,0x15,0x39,0xa3,0x48,0xf9,0x38,0xfb,0xe9,0x3d,0x39,0x66,0x87,0xaf,0x38,0xae,0xbf,0xb6,0x38,0x7f,0x7f,0x46,0x39,0x12,0xb7,0x20,0x39,0xd1,0x19,0x55,0x39,0x5c,0xb6,0x2f,0x39,0x12,0x0,0x0,0x0,0x74,0x66,0x6c,0x2e,0x70,0x73,0x65,0x75,0x64,0x6f,0x5f,0x71,0x63,0x6f,0x6e,0x73,0x74,0x32,0x0,0x0,0x1,0x0,0x0,0x0,0x10,0x0,0x0,0x0,0xa,0xfe,0xff,0xff,0x0,0x0,0x0,0x1,0x14,0x0,0x0,0x0,0x34,0x0,0x0,0x0,0x9,0x0,0x0,0x0,0x0,0x0,0x0,0x9,0x40,0x0,0x0,0x0,0x9c,0xff,0xff,0xff,0x8,0x0,0x0,0x0,0x14,0x0,0x0,0x0,0x1,0x0,0x0,0x0,0x0,0x0,0x0,0x0,0x0,0x0,0x0,0x0,0x0,0x0,0x0,0x0,0x1,0x0,0x0,0x0,0x88,0x26,0xe8,0x3b,0x12,0x0,0x0,0x0,0x74,0x66,0x6c,0x2e,0x70,0x73,0x65,0x75,0x64,0x6f,0x5f,0x71,0x63,0x6f,0x6e,0x73,0x74,0x31,0x0,0x0,0x2,0x0,0x0,0x0,0x1,0x0,0x0,0x0,0x10,0x0,0x0,0x0,0x6e,0xfe,0xff,0xff,0x0,0x0,0x0,0x1,0x20,0x0,0x0,0x0,0x3c,0x0,0x0,0x0,0x8,0x0,0x0,0x0,0x0,0x0,0x0,0x2,0x48,0x0,0x0,0x0,0xc,0x0,0xc,0x0,0x0,0x0,0x0,0x0,0x8,0x0,0x4,0x0,0xc,0x0,0x0,0x0,0x8,0x0,0x0,0x0,0x10,0x0,0x0,0x0,0x1,0x0,0x0,0x0,0x0,0x0,0x0,0x0,0x0,0x0,0x0,0x0,0x1,0x0,0x0,0x0,0x6,0x13,0x9,0x39,0x11,0x0,0x0,0x0,0x74,0x66,0x6c,0x2e,0x70,0x73,0x65,0x75,0x64,0x6f,0x5f,0x71,0x63,0x6f,0x6e,0x73,0x74,0x0,0x0,0x0,0x1,0x0,0x0,0x0,0x1,0x0,0x0,0x0,0xd6,0xfe,0xff,0xff,0x0,0x0,0x0,0x1,0x14,0x0,0x0,0x0,0x14,0x0,0x0,0x0,0x7,0x0,0x0,0x0,0x0,0x0,0x0,0x2,0x1c,0x0,0x0,0x0,0x60,0xfe,0xff,0xff,0xf,0x0,0x0,0x0,0x61,0x72,0x69,0x74,0x68,0x2e,0x63,0x6f,0x6e,0x73,0x74,0x61,0x6e,0x74,0x35,0x0,0x1,0x0,0x0,0x0,0x3,0x0,0x0,0x0,0x12,0xff,0xff,0xff,0x0,0x0,0x0,0x1,0x14,0x0,0x0,0x0,0x14,0x0,0x0,0x0,0x6,0x0,0x0,0x0,0x0,0x0,0x0,0x2,0x1c,0x0,0x0,0x0,0x9c,0xfe,0xff,0xff,0xf,0x0,0x0,0x0,0x61,0x72,0x69,0x74,0x68,0x2e,0x63,0x6f,0x6e,0x73,0x74,0x61,0x6e,0x74,0x34,0x0,0x1,0x0,0x0,0x0,0x3,0x0,0x0,0x0,0x4e,0xff,0xff,0xff,0x0,0x0,0x0,0x1,0x14,0x0,0x0,0x0,0x14,0x0,0x0,0x0,0x5,0x0,0x0,0x0,0x0,0x0,0x0,0x2,0x1c,0x0,0x0,0x0,0xd8,0xfe,0xff,0xff,0xf,0x0,0x0,0x0,0x61,0x72,0x69,0x74,0x68,0x2e,0x63,0x6f,0x6e,0x73,0x74,0x61,0x6e,0x74,0x33,0x0,0x1,0x0,0x0,0x0,0x3,0x0,0x0,0x0,0x8a,0xff,0xff,0xff,0x0,0x0,0x0,0x1,0x14,0x0,0x0,0x0,0x14,0x0,0x0,0x0,0x4,0x0,0x0,0x0,0x0,0x0,0x0,0x2,0x1c,0x0,0x0,0x0,0x14,0xff,0xff,0xff,0xf,0x0,0x0,0x0,0x61,0x72,0x69,0x74,0x68,0x2e,0x63,0x6f,0x6e,0x73,0x74,0x61,0x6e,0x74,0x32,0x0,0x0,0x0,0x0,0x0,0xc2,0xff,0xff,0xff,0x0,0x0,0x0,0x1,0x14,0x0,0x0,0x0,0x14,0x0,0x0,0x0,0x3,0x0,0x0,0x0,0x0,0x0,0x0,0x2,0x1c,0x0,0x0,0x0,0x4c,0xff,0xff,0xff,0xf,0x0,0x0,0x0,0x61,0x72,0x69,0x74,0x68,0x2e,0x63,0x6f,0x6e,0x73,0x74,0x61,0x6e,0x74,0x31,0x0,0x1,0x0,0x0,0x0,0x3,0x0,0x0,0x0,0x0,0x0,0x16,0x0,0x1c,0x0,0x18,0x0,0x17,0x0,0x10,0x0,0xc,0x0,0x8,0x0,0x0,0x0,0x0,0x0,0x0,0x0,0x7,0x0,0x16,0x0,0x0,0x0,0x0,0x0,0x0,0x1,0x14,0x0,0x0,0x0,0x14,0x0,0x0,0x0,0x2,0x0,0x0,0x0,0x0,0x0,0x0,0x2,0x1c,0x0,0x0,0x0,0xa0,0xff,0xff,0xff,0xe,0x0,0x0,0x0,0x61,0x72,0x69,0x74,0x68,0x2e,0x63,0x6f,0x6e,0x73,0x74,0x61,0x6e,0x74,0x0,0x0,0x0,0x0,0x0,0x0,0x0,0x0,0x16,0x0,0x1c,0x0,0x18,0x0,0x0,0x0,0x14,0x0,0x10,0x0,0xc,0x0,0x0,0x0,0x0,0x0,0x8,0x0,0x7,0x0,0x16,0x0,0x0,0x0,0x0,0x0,0x0,0x1,0x14,0x0,0x0,0x0,0x24,0x0,0x0,0x0,0x24,0x0,0x0,0x0,0x1,0x0,0x0,0x0,0x40,0x0,0x0,0x0,0x3,0x0,0x0,0x0,0xff,0xff,0xff,0xff,0x80,0x0,0x0,0x0,0x9,0x0,0x0,0x0,0x4,0x0,0x4,0x0,0x4,0x0,0x0,0x0,0x1f,0x0,0x0,0x0,0x73,0x65,0x72,0x76,0x69,0x6e,0x67,0x5f,0x64,0x65,0x66,0x61,0x75,0x6c,0x74,0x5f,0x69,0x6e,0x70,0x75,0x74,0x5f,0x6c,0x61,0x79,0x65,0x72,0x5f,0x39,0x3a,0x30,0x0,0x3,0x0,0x0,0x0,0x1,0x0,0x0,0x0,0x80,0x0,0x0,0x0,0x9,0x0,0x0,0x0,0xb,0x0,0x0,0x0,0xe8,0x0,0x0,0x0,0xc8,0x0,0x0,0x0,0xb0,0x0,0x0,0x0,0x98,0x0,0x0,0x0,0x78,0x0,0x0,0x0,0x68,0x0,0x0,0x0,0x54,0x0,0x0,0x0,0x40,0x0,0x0,0x0,0x2c,0x0,0x0,0x0,0x18,0x0,0x0,0x0,0x4,0x0,0x0,0x0,0x6c,0xff,0xff,0xff,0x6,0x0,0x0,0x0,0x2,0x0,0x0,0x0,0x0,0x0,0x0,0x6,0x7c,0xff,0xff,0xff,0xe,0x0,0x0,0x0,0x2,0x0,0x0,0x0,0x0,0x0,0x0,0xe,0x8c,0xff,0xff,0xff,0x9,0x0,0x0,0x0,0x4,0x0,0x0,0x0,0x0,0x0,0x0,0x9,0x9c,0xff,0xff,0xff,0x28,0x0,0x0,0x0,0x2,0x0,0x0,0x0,0x0,0x0,0x0,0x28,0xac,0xff,0xff,0xff,0x11,0x0,0x0,0x0,0x2,0x0,0x0,0x0,0x0,0x0,0x0,0x11,0xa0,0xff,0xff,0xff,0x16,0x0,0x0,0x0,0x0,0x0,0x0,0x16,0xc8,0xff,0xff,0xff,0x3,0x0,0x0,0x0,0x3,0x0,0x0,0x0,0x0,0x0,0x0,0x3,0xc,0x0,0xa,0x0,0x9,0x0,0x0,0x0,0x0,0x0,0x4,0x0,0xc,0x0,0x0,0x0,0x46,0x0,0x0,0x0,0x0,0x46,0xa,0x0,0x8,0x0,0x0,0x0,0x0,0x0,0x4,0x0,0xa,0x0,0x0,0x0,0x2,0x0,0x0,0x0,0xc,0x0,0x10,0x0,0xf,0x0,0x0,0x0,0x8,0x0,0x4,0x0,0xc,0x0,0x0,0x0,0x12,0x0,0x0,0x0,0x2,0x0,0x0,0x0,0x0,0x0,0x0,0x12,0xc,0x0,0xc,0x0,0xb,0x0,0x0,0x0,0x0,0x0,0x4,0x0,0xc,0x0,0x0,0x0,0x72,0x0,0x0,0x0,0x0,0x0,0x0,0x72};
unsigned int model_data_len = 12464;

#endif